{
  "version": "1.0",
  "truncation": null,
  "padding": null,
  "added_tokens": [
    {
      "id": 0,
      "content": "<PAD>",
      "single_word": false,
      "lstrip": false,
      "rstrip": false,
      "normalized": false,
      "special": true
    },
    {
      "id": 1,
      "content": "<SOS>",
      "single_word": false,
      "lstrip": false,
      "rstrip": false,
      "normalized": false,
      "special": true
    },
    {
      "id": 2,
      "content": "<EOS>",
      "single_word": false,
      "lstrip": false,
      "rstrip": false,
      "normalized": false,
      "special": true
    },
    {
      "id": 3,
      "content": "<UNK>",
      "single_word": false,
      "lstrip": false,
      "rstrip": false,
      "normalized": false,
      "special": true
    },
    {
      "id": 4,
      "content": "[CTX]",
      "single_word": false,
      "lstrip": false,
      "rstrip": false,
      "normalized": false,
      "special": true
    },
    {
      "id": 5,
      "content": "[Q]",
      "single_word": false,
      "lstrip": false,
      "rstrip": false,
      "normalized": false,
      "special": true
    }
  ],
  "normalizer": null,
  "pre_tokenizer": {
    "type": "Whitespace"
  },
  "post_processor": null,
  "decoder": null,
  "model": {
    "type": "BPE",
    "dropout": null,
    "unk_token": "<UNK>",
    "continuing_subword_prefix": null,
    "end_of_word_suffix": null,
    "fuse_unk": false,
    "byte_fallback": false,
    "ignore_merges": false,
    "vocab": {
      "<PAD>": 0,
      "<SOS>": 1,
      "<EOS>": 2,
      "<UNK>": 3,
      "[CTX]": 4,
      "[Q]": 5,
      "\u0001": 6,
      "\u0002": 7,
      "\u0003": 8,
      "\u0004": 9,
      "\u0005": 10,
      "\u0006": 11,
      "\u0007": 12,
      "\b": 13,
      "\u000e": 14,
      "\u000f": 15,
      "\u0010": 16,
      "\u0011": 17,
      "\u0012": 18,
      "\u0013": 19,
      "\u0014": 20,
      "\u0015": 21,
      "\u0016": 22,
      "\u0017": 23,
      "\u0018": 24,
      "\u0019": 25,
      "\u001a": 26,
      "\u001b": 27,
      "\u001c": 28,
      "\u001d": 29,
      "\u001e": 30,
      "\u001f": 31,
      "!": 32,
      "\"": 33,
      "#": 34,
      "$": 35,
      "%": 36,
      "&": 37,
      "'": 38,
      "(": 39,
      ")": 40,
      "*": 41,
      "+": 42,
      ",": 43,
      "-": 44,
      ".": 45,
      "/": 46,
      "0": 47,
      "1": 48,
      "2": 49,
      "3": 50,
      "4": 51,
      "5": 52,
      "6": 53,
      "7": 54,
      "8": 55,
      "9": 56,
      ":": 57,
      ";": 58,
      "<": 59,
      "=": 60,
      ">": 61,
      "?": 62,
      "@": 63,
      "A": 64,
      "B": 65,
      "C": 66,
      "D": 67,
      "E": 68,
      "F": 69,
      "G": 70,
      "H": 71,
      "I": 72,
      "J": 73,
      "K": 74,
      "L": 75,
      "M": 76,
      "N": 77,
      "O": 78,
      "P": 79,
      "Q": 80,
      "R": 81,
      "S": 82,
      "T": 83,
      "U": 84,
      "V": 85,
      "W": 86,
      "X": 87,
      "Y": 88,
      "Z": 89,
      "[": 90,
      "\\": 91,
      "]": 92,
      "^": 93,
      "_": 94,
      "`": 95,
      "a": 96,
      "b": 97,
      "c": 98,
      "d": 99,
      "e": 100,
      "f": 101,
      "g": 102,
      "h": 103,
      "i": 104,
      "j": 105,
      "k": 106,
      "l": 107,
      "m": 108,
      "n": 109,
      "o": 110,
      "p": 111,
      "q": 112,
      "r": 113,
      "s": 114,
      "t": 115,
      "u": 116,
      "v": 117,
      "w": 118,
      "x": 119,
      "y": 120,
      "z": 121,
      "{": 122,
      "|": 123,
      "}": 124,
      "": 125,
      "": 126,
      "­": 127,
      "®": 128,
      "°": 129,
      "±": 130,
      "²": 131,
      "·": 132,
      "º": 133,
      "¼": 134,
      "½": 135,
      "¾": 136,
      "¿": 137,
      "×": 138,
      "à": 139,
      "á": 140,
      "â": 141,
      "í": 142,
      "ñ": 143,
      "ó": 144,
      "þ": 145,
      "γ": 146,
      "ँ": 147,
      "ं": 148,
      "ः": 149,
      "अ": 150,
      "आ": 151,
      "इ": 152,
      "ई": 153,
      "उ": 154,
      "ऋ": 155,
      "ए": 156,
      "ऐ": 157,
      "ऑ": 158,
      "ओ": 159,
      "औ": 160,
      "क": 161,
      "ख": 162,
      "ग": 163,
      "घ": 164,
      "च": 165,
      "छ": 166,
      "ज": 167,
      "ञ": 168,
      "ट": 169,
      "ठ": 170,
      "ड": 171,
      "ढ": 172,
      "ण": 173,
      "त": 174,
      "थ": 175,
      "द": 176,
      "ध": 177,
      "न": 178,
      "प": 179,
      "फ": 180,
      "ब": 181,
      "भ": 182,
      "म": 183,
      "य": 184,
      "र": 185,
      "ल": 186,
      "व": 187,
      "श": 188,
      "ष": 189,
      "स": 190,
      "ह": 191,
      "़": 192,
      "ा": 193,
      "ि": 194,
      "ी": 195,
      "ु": 196,
      "ू": 197,
      "ृ": 198,
      "े": 199,
      "ै": 200,
      "ॉ": 201,
      "ो": 202,
      "ौ": 203,
      "्": 204,
      "ज़": 205,
      "ड़": 206,
      "फ़": 207,
      "।": 208,
      "०": 209,
      "१": 210,
      "२": 211,
      "३": 212,
      "४": 213,
      "५": 214,
      "६": 215,
      "८": 216,
      "ঁ": 217,
      "ং": 218,
      "ঃ": 219,
      "অ": 220,
      "আ": 221,
      "ই": 222,
      "উ": 223,
      "এ": 224,
      "ও": 225,
      "ক": 226,
      "খ": 227,
      "গ": 228,
      "ঘ": 229,
      "ঙ": 230,
      "চ": 231,
      "ছ": 232,
      "জ": 233,
      "ঝ": 234,
      "ঞ": 235,
      "ট": 236,
      "ঠ": 237,
      "ড": 238,
      "ঢ": 239,
      "ণ": 240,
      "ত": 241,
      "থ": 242,
      "দ": 243,
      "ধ": 244,
      "ন": 245,
      "প": 246,
      "ফ": 247,
      "ব": 248,
      "ভ": 249,
      "ম": 250,
      "য": 251,
      "র": 252,
      "ল": 253,
      "শ": 254,
      "ষ": 255,
      "স": 256,
      "হ": 257,
      "়": 258,
      "া": 259,
      "ি": 260,
      "ী": 261,
      "ু": 262,
      "ূ": 263,
      "ৃ": 264,
      "ে": 265,
      "ৈ": 266,
      "ো": 267,
      "ৌ": 268,
      "্": 269,
      "ৗ": 270,
      "ড়": 271,
      "য়": 272,
      "০": 273,
      "১": 274,
      "২": 275,
      "৩": 276,
      "৪": 277,
      "৫": 278,
      "৬": 279,
      "৭": 280,
      "৮": 281,
      "৯": 282,
      "ৰ": 283,
      "ৱ": 284,
      "ં": 285,
      "અ": 286,
      "આ": 287,
      "ઉ": 288,
      "એ": 289,
      "ક": 290,
      "ખ": 291,
      "ચ": 292,
      "છ": 293,
      "જ": 294,
      "ટ": 295,
      "ડ": 296,
      "ણ": 297,
      "ત": 298,
      "થ": 299,
      "દ": 300,
      "ધ": 301,
      "ન": 302,
      "પ": 303,
      "ફ": 304,
      "બ": 305,
      "મ": 306,
      "ય": 307,
      "ર": 308,
      "લ": 309,
      "ળ": 310,
      "વ": 311,
      "શ": 312,
      "સ": 313,
      "હ": 314,
      "ા": 315,
      "િ": 316,
      "ી": 317,
      "ુ": 318,
      "ૂ": 319,
      "ે": 320,
      "ો": 321,
      "્": 322,
      "૦": 323,
      "૧": 324,
      "૨": 325,
      "૩": 326,
      "૪": 327,
      "૫": 328,
      "૬": 329,
      "૮": 330,
      "૯": 331,
      "அ": 332,
      "எ": 333,
      "ஒ": 334,
      "க": 335,
      "ச": 336,
      "ட": 337,
      "ண": 338,
      "த": 339,
      "ன": 340,
      "ப": 341,
      "ம": 342,
      "ய": 343,
      "ர": 344,
      "ற": 345,
      "ல": 346,
      "ள": 347,
      "வ": 348,
      "ஷ": 349,
      "ா": 350,
      "ி": 351,
      "ு": 352,
      "ே": 353,
      "ை": 354,
      "்": 355,
      "ం": 356,
      "ఆ": 357,
      "ఎ": 358,
      "ఒ": 359,
      "క": 360,
      "గ": 361,
      "చ": 362,
      "ట": 363,
      "డ": 364,
      "ద": 365,
      "న": 366,
      "ప": 367,
      "మ": 368,
      "య": 369,
      "ర": 370,
      "ల": 371,
      "స": 372,
      "హ": 373,
      "ా": 374,
      "ి": 375,
      "ీ": 376,
      "ు": 377,
      "ే": 378,
      "ై": 379,
      "ొ": 380,
      "ో": 381,
      "్": 382,
      "​": 383,
      "‌": 384,
      "‐": 385,
      "‑": 386,
      "–": 387,
      "—": 388,
      "‘": 389,
      "’": 390,
      "“": 391,
      "”": 392,
      "•": 393,
      "…": 394,
      "›": 395,
      "₃": 396,
      "₹": 397,
      "℃": 398,
      "™": 399,
      "−": 400,
      "⋅": 401,
      "▸": 402,
      "❖": 403,
      "➢": 404,
      "⦁": 405,
      "": 406,
      "": 407,
      "": 408,
      "": 409,
      "": 410,
      "": 411,
      "ﬀ": 412,
      "ﬁ": 413,
      "ﬂ": 414,
      "﻿": 415,
      "�": 416,
      "👉": 417,
      "in": 418,
      "er": 419,
      "an": 420,
      "re": 421,
      "at": 422,
      "of": 423,
      "on": 424,
      "th": 425,
      "li": 426,
      "ra": 427,
      "to": 428,
      "me": 429,
      "ed": 430,
      "ro": 431,
      "or": 432,
      "ing": 433,
      "the": 434,
      "st": 435,
      "sp": 436,
      "ar": 437,
      "ti": 438,
      "se": 439,
      "pl": 440,
      "al": 441,
      "ater": 442,
      "ge": 443,
      "co": 444,
      "water": 445,
      "as": 446,
      "men": 447,
      "lit": 448,
      "il": 449,
      "ap": 450,
      "ic": 451,
      "ray": 452,
      "spray": 453,
      "and": 454,
      "en": 455,
      "con": 456,
      "ac": 457,
      "ad": 458,
      "per": 459,
      "for": 460,
      "is": 461,
      "ion": 462,
      "le": 463,
      "ure": 464,
      "ml": 465,
      "ut": 466,
      "su": 467,
      "it": 468,
      "ch": 469,
      "de": 470,
      "cont": 471,
      "com": 472,
      "man": 473,
      "age": 474,
      "ment": 475,
      "ur": 476,
      "ation": 477,
      "appl": 478,
      "kg": 479,
      "gra": 480,
      "apply": 481,
      "ant": 482,
      "ow": 483,
      "da": 484,
      "ri": 485,
      "ded": 486,
      "ter": 487,
      "litre": 488,
      "gram": 489,
      "recom": 490,
      "mended": 491,
      "rol": 492,
      "recommended": 493,
      "di": 494,
      "control": 495,
      "be": 496,
      "00": 497,
      "ul": 498,
      "es": 499,
      "im": 500,
      "ec": 501,
      "af": 502,
      "ot": 503,
      "plant": 504,
      "manage": 505,
      "management": 506,
      "go": 507,
      "do": 508,
      "ab": 509,
      "gm": 510,
      "day": 511,
      "gh": 512,
      "el": 513,
      "fer": 514,
      "un": 515,
      "days": 516,
      "sug": 517,
      "pro": 518,
      "ma": 519,
      "50": 520,
      "dy": 521,
      "so": 522,
      "ice": 523,
      "gest": 524,
      "bi": 525,
      "mo": 526,
      "suggest": 527,
      "adv": 528,
      "him": 529,
      "ate": 530,
      "um": 531,
      "ve": 532,
      "ho": 533,
      "pad": 534,
      "ferti": 535,
      "paddy": 536,
      "pe": 537,
      "liz": 538,
      "king": 539,
      "lizer": 540,
      "wi": 541,
      "ta": 542,
      "time": 543,
      "urea": 544,
      "us": 545,
      "suggested": 546,
      "fertilizer": 547,
      "ex": 548,
      "with": 549,
      "et": 550,
      "rop": 551,
      "ari": 552,
      "10": 553,
      "ent": 554,
      "em": 555,
      "??": 556,
      "seed": 557,
      "acre": 558,
      "ly": 559,
      "ag": 560,
      "qu": 561,
      "am": 562,
      "liter": 563,
      "ru": 564,
      "pli": 565,
      "20": 566,
      "meas": 567,
      "bigh": 568,
      "tion": 569,
      "measure": 570,
      "av": 571,
      "nut": 572,
      "bigha": 573,
      "are": 574,
      "ised": 575,
      "asking": 576,
      "dose": 577,
      "ase": 578,
      "appli": 579,
      "advised": 580,
      "bo": 581,
      "vari": 582,
      "can": 583,
      "ain": 584,
      "lo": 585,
      "we": 586,
      "crop": 587,
      "ber": 588,
      "illi": 589,
      "mi": 590,
      "sow": 591,
      "tr": 592,
      "urd": 593,
      "200": 594,
      "inter": 595,
      "pot": 596,
      "tail": 597,
      "2ml": 598,
      "ld": 599,
      "cul": 600,
      "val": 601,
      "detail": 602,
      "chilli": 603,
      "ide": 604,
      "ato": 605,
      "rac": 606,
      "rient": 607,
      "gourd": 608,
      "ce": 609,
      "po": 610,
      "low": 611,
      "ard": 612,
      "interval": 613,
      "id": 614,
      "leaf": 615,
      "cation": 616,
      "ine": 617,
      "bor": 618,
      "tre": 619,
      "ze": 620,
      "mon": 621,
      "after": 622,
      "fru": 623,
      "application": 624,
      "fruit": 625,
      "ist": 626,
      "ath": 627,
      "out": 628,
      "details": 629,
      "ery": 630,
      "tiv": 631,
      "mal": 632,
      "sowing": 633,
      "15": 634,
      "dise": 635,
      "rice": 636,
      "no": 637,
      "dh": 638,
      "ir": 639,
      "mop": 640,
      "fe": 641,
      "row": 642,
      "tom": 643,
      "disease": 644,
      "ack": 645,
      "fo": 646,
      "ture": 647,
      "ana": 648,
      "mix": 649,
      "ther": 650,
      "ssp": 651,
      "about": 652,
      "wh": 653,
      "litres": 654,
      "nutrient": 655,
      "sa": 656,
      "ke": 657,
      "ph": 658,
      "ban": 659,
      "ne": 660,
      "inj": 661,
      "30": 662,
      "ric": 663,
      "ct": 664,
      "conut": 665,
      "coconut": 666,
      "25": 667,
      "plain": 668,
      "one": 669,
      "ash": 670,
      "gi": 671,
      "ble": 672,
      "reg": 673,
      "dhan": 674,
      "explain": 675,
      "du": 676,
      "ung": 677,
      "--": 678,
      "ass": 679,
      "malath": 680,
      "cow": 681,
      "min": 682,
      "malathion": 683,
      "ral": 684,
      "pest": 685,
      "tic": 686,
      "variet": 687,
      "rid": 688,
      "soil": 689,
      "ish": 690,
      "od": 691,
      "variety": 692,
      "rot": 693,
      "cultiv": 694,
      "use": 695,
      "act": 696,
      "ize": 697,
      "pho": 698,
      "that": 699,
      "rom": 700,
      "planting": 701,
      "br": 702,
      "ill": 703,
      "red": 704,
      "arm": 705,
      "lower": 706,
      "ear": 707,
      "ven": 708,
      "told": 709,
      "from": 710,
      "flower": 711,
      "ay": 712,
      "bean": 713,
      "contact": 714,
      "borer": 715,
      "tw": 716,
      "eld": 717,
      "ver": 718,
      "ield": 719,
      "tomato": 720,
      "19": 721,
      "banana": 722,
      "sh": 723,
      "blem": 724,
      "all": 725,
      "bl": 726,
      "able": 727,
      "dre": 728,
      "grams": 729,
      "2gm": 730,
      "problem": 731,
      "pea": 732,
      "ary": 733,
      "ial": 734,
      "ka": 735,
      "form": 736,
      "pre": 737,
      "100": 738,
      "sho": 739,
      "lor": 740,
      "ties": 741,
      "und": 742,
      "treat": 743,
      "farm": 744,
      "other": 745,
      "ght": 746,
      "cultivation": 747,
      "ton": 748,
      "ca": 749,
      "meth": 750,
      "te": 751,
      "ect": 752,
      "grow": 753,
      "ily": 754,
      "maize": 755,
      "bli": 756,
      "pper": 757,
      "car": 758,
      "ry": 759,
      "ss": 760,
      "lu": 761,
      "dist": 762,
      "daily": 763,
      "prac": 764,
      "injal": 765,
      "chlor": 766,
      "brinjal": 767,
      "40": 768,
      "ong": 769,
      "ava": 770,
      "weed": 771,
      "12": 772,
      "yc": 773,
      "stem": 774,
      "45": 775,
      "dur": 776,
      "potash": 777,
      "advice": 778,
      "gre": 779,
      "ben": 780,
      "month": 781,
      "ig": 782,
      "by": 783,
      "off": 784,
      "cm": 785,
      "arding": 786,
      "????": 787,
      "varie": 788,
      "mil": 789,
      "ling": 790,
      "varieties": 791,
      "bora": 792,
      "uld": 793,
      "tu": 794,
      "ite": 795,
      "regarding": 796,
      "formation": 797,
      "rain": 798,
      "borax": 799,
      "times": 800,
      "der": 801,
      "ran": 802,
      "get": 803,
      "hi": 804,
      "chillies": 805,
      "treatment": 806,
      "par": 807,
      "umber": 808,
      "potato": 809,
      "na": 810,
      "sul": 811,
      "should": 812,
      "spec": 813,
      "zo": 814,
      "seeds": 815,
      "ron": 816,
      "agric": 817,
      "inse": 818,
      "cot": 819,
      "ck": 820,
      "information": 821,
      "year": 822,
      "har": 823,
      "agricul": 824,
      "wil": 825,
      "nch": 826,
      "he": 827,
      "cotton": 828,
      "fish": 829,
      "green": 830,
      "fung": 831,
      "gor": 832,
      "ha": 833,
      "wilt": 834,
      "phos": 835,
      "pk": 836,
      "canut": 837,
      "icide": 838,
      "arecanut": 839,
      "explained": 840,
      "cu": 841,
      "ection": 842,
      "mic": 843,
      "mango": 844,
      "others": 845,
      "60": 846,
      "istin": 847,
      "ox": 848,
      "rate": 849,
      "field": 850,
      "yo": 851,
      "inc": 852,
      "bh": 853,
      "given": 854,
      "pow": 855,
      "top": 856,
      "round": 857,
      "bav": 858,
      "requ": 859,
      ";-": 860,
      "rogor": 861,
      "root": 862,
      "bavistin": 863,
      "cal": 864,
      "mixture": 865,
      "ast": 866,
      "query": 867,
      "kn": 868,
      "ium": 869,
      "lime": 870,
      "ask": 871,
      "has": 872,
      "again": 873,
      "ach": 874,
      "practic": 875,
      "land": 876,
      "oc": 877,
      "ust": 878,
      "practices": 879,
      "pt": 880,
      "dos": 881,
      "ridge": 882,
      "trac": 883,
      "lity": 884,
      "dosage": 885,
      "tural": 886,
      "indi": 887,
      "tle": 888,
      "like": 889,
      "au": 890,
      "bu": 891,
      "wee": 892,
      "500": 893,
      "drop": 894,
      "ia": 895,
      "cy": 896,
      "black": 897,
      "ason": 898,
      "18": 899,
      "hy": 900,
      "spac": 901,
      "applied": 902,
      "station": 903,
      "mar": 904,
      "sc": 905,
      "tran": 906,
      "35": 907,
      "bet": 908,
      "bac": 909,
      "rict": 910,
      "ess": 911,
      "blight": 912,
      "gen": 913,
      "fic": 914,
      "ely": 915,
      "season": 916,
      "copper": 917,
      "aph": 918,
      "twice": 919,
      "ated": 920,
      "requi": 921,
      "against": 922,
      "neem": 923,
      "district": 924,
      "end": 925,
      "spacing": 926,
      "urs": 927,
      "want": 928,
      "saaf": 929,
      "asked": 930,
      "two": 931,
      "drench": 932,
      "during": 933,
      "bit": 934,
      "tric": 935,
      "know": 936,
      "pus": 937,
      "compo": 938,
      "ind": 939,
      "solu": 940,
      "sto": 941,
      "bot": 942,
      "also": 943,
      "veget": 944,
      "give": 945,
      "fungal": 946,
      "crops": 947,
      "phate": 948,
      "oral": 949,
      "prot": 950,
      "400": 951,
      "agriculture": 952,
      "ting": 953,
      "chloride": 954,
      "cap": 955,
      "inf": 956,
      "pm": 957,
      "pal": 958,
      "kv": 959,
      "method": 960,
      "ister": 961,
      "inger": 962,
      "oxy": 963,
      "week": 964,
      "pill": 965,
      "orally": 966,
      "not": 967,
      "fore": 968,
      "tur": 969,
      "pusa": 970,
      "dress": 971,
      "micron": 972,
      "kis": 973,
      "solution": 974,
      "tracel": 975,
      "ick": 976,
      "vis": 977,
      "gan": 978,
      "vegetable": 979,
      "pon": 980,
      "kvk": 981,
      "75": 982,
      "dr": 983,
      "pum": 984,
      "ction": 985,
      "feed": 986,
      "cuc": 987,
      "tox": 988,
      "infe": 989,
      "ity": 990,
      "cater": 991,
      "if": 992,
      "ien": 993,
      "mer": 994,
      "office": 995,
      "insect": 996,
      "bottle": 997,
      "growth": 998,
      "sch": 999,
      "ected": 1000,
      "kil": 1001,
      "bhindi": 1002,
      "doses": 1003,
      "manure": 1004,
      "ance": 1005,
      "yri": 1006,
      "utrient": 1007,
      "oil": 1008,
      "produ": 1009,
      "cucumber": 1010,
      "ak": 1011,
      "bitter": 1012,
      "jun": 1013,
      "rep": 1014,
      "etc": 1015,
      "protection": 1016,
      "ok": 1017,
      "kilo": 1018,
      "ground": 1019,
      "att": 1020,
      "how": 1021,
      "ping": 1022,
      "fly": 1023,
      "aya": 1024,
      "cab": 1025,
      "plan": 1026,
      "caterpill": 1027,
      "kisan": 1028,
      "micronutrient": 1029,
      "visit": 1030,
      "cur": 1031,
      "vest": 1032,
      "vit": 1033,
      "bacter": 1034,
      "some": 1035,
      "infestation": 1036,
      "spot": 1037,
      "int": 1038,
      "ical": 1039,
      "ps": 1040,
      "seedling": 1041,
      "cabb": 1042,
      "..": 1043,
      "pap": 1044,
      "before": 1045,
      "cabbage": 1046,
      "stage": 1047,
      "powder": 1048,
      "leav": 1049,
      "17": 1050,
      "ember": 1051,
      "ix": 1052,
      "wor": 1053,
      "ril": 1054,
      "ltr": 1055,
      "up": 1056,
      "bas": 1057,
      "cking": 1058,
      "avail": 1059,
      "may": 1060,
      "cowpea": 1061,
      "harvest": 1062,
      "main": 1063,
      "ycl": 1064,
      "leaves": 1065,
      "amin": 1066,
      "cane": 1067,
      "dire": 1068,
      "june": 1069,
      "attack": 1070,
      "tober": 1071,
      "october": 1072,
      "rig": 1073,
      "vi": 1074,
      "azo": 1075,
      "cut": 1076,
      "ty": 1077,
      "ati": 1078,
      "tree": 1079,
      "80": 1080,
      "name": 1081,
      "papaya": 1082,
      "zeb": 1083,
      "ace": 1084,
      "cozeb": 1085,
      "bacterial": 1086,
      "1ml": 1087,
      "this": 1088,
      "must": 1089,
      "mancozeb": 1090,
      "pond": 1091,
      "ser": 1092,
      "her": 1093,
      "13": 1094,
      "gold": 1095,
      "150": 1096,
      "irrig": 1097,
      "dung": 1098,
      "aphid": 1099,
      "op": 1100,
      "respec": 1101,
      "cent": 1102,
      "sam": 1103,
      "hal": 1104,
      "phosp": 1105,
      "sulphate": 1106,
      "blitox": 1107,
      "300": 1108,
      "minister": 1109,
      "sugar": 1110,
      "pr": 1111,
      "nurs": 1112,
      "lon": 1113,
      "super": 1114,
      "proc": 1115,
      "uli": 1116,
      "then": 1117,
      "strep": 1118,
      "organ": 1119,
      "eat": 1120,
      "caterpillar": 1121,
      "any": 1122,
      "worm": 1123,
      "require": 1124,
      "lant": 1125,
      "pkin": 1126,
      "ple": 1127,
      "mak": 1128,
      "tricel": 1129,
      "administer": 1130,
      "plants": 1131,
      "pumpkin": 1132,
      "sept": 1133,
      "yield": 1134,
      "ym": 1135,
      "ich": 1136,
      "transp": 1137,
      "mustard": 1138,
      "pit": 1139,
      "let": 1140,
      "measures": 1141,
      "chi": 1142,
      "compost": 1143,
      "goat": 1144,
      "fir": 1145,
      "plex": 1146,
      "eme": 1147,
      "along": 1148,
      "250": 1149,
      "pi": 1150,
      "nursery": 1151,
      "april": 1152,
      "scheme": 1153,
      "zim": 1154,
      "wp": 1155,
      "cultural": 1156,
      "organic": 1157,
      "fall": 1158,
      "ofix": 1159,
      "sucking": 1160,
      "palm": 1161,
      "pig": 1162,
      "split": 1163,
      "dec": 1164,
      "transplant": 1165,
      "phosph": 1166,
      "dry": 1167,
      "til": 1168,
      "si": 1169,
      "mat": 1170,
      "number": 1171,
      "carben": 1172,
      "tively": 1173,
      "kap": 1174,
      "defic": 1175,
      "ep": 1176,
      "planofix": 1177,
      "white": 1178,
      "farmer": 1179,
      "ycin": 1180,
      "iency": 1181,
      "npk": 1182,
      "capt": 1183,
      "requirement": 1184,
      "sprays": 1185,
      "26": 1186,
      "ugh": 1187,
      "bro": 1188,
      "ster": 1189,
      "first": 1190,
      "flowering": 1191,
      "2g": 1192,
      "ara": 1193,
      "onion": 1194,
      "used": 1195,
      "direct": 1196,
      "gu": 1197,
      "zinc": 1198,
      "borde": 1199,
      "acc": 1200,
      "azole": 1201,
      "okra": 1202,
      "kapas": 1203,
      "bre": 1204,
      "mul": 1205,
      "24": 1206,
      "14": 1207,
      "carbenda": 1208,
      "melon": 1209,
      "prepar": 1210,
      "kilogram": 1211,
      "carbendazim": 1212,
      "respectively": 1213,
      "ts": 1214,
      "his": 1215,
      "assava": 1216,
      "which": 1217,
      "special": 1218,
      "uri": 1219,
      "vine": 1220,
      "march": 1221,
      "ring": 1222,
      "meg": 1223,
      "mite": 1224,
      "jan": 1225,
      "same": 1226,
      "prid": 1227,
      "deficiency": 1228,
      "kr": 1229,
      "por": 1230,
      "tive": 1231,
      "tea": 1232,
      "groundnut": 1233,
      "boro": 1234,
      "culture": 1235,
      "ofil": 1236,
      "bol": 1237,
      "liters": 1238,
      "area": 1239,
      "preparation": 1240,
      "5ml": 1241,
      "september": 1242,
      "rd": 1243,
      "duration": 1244,
      "sugarcane": 1245,
      ").": 1246,
      "makka": 1247,
      "sen": 1248,
      "acid": 1249,
      "yel": 1250,
      "indofil": 1251,
      "brid": 1252,
      "vitamin": 1253,
      "tor": 1254,
      "ell": 1255,
      "good": 1256,
      "hybrid": 1257,
      "but": 1258,
      "pyri": 1259,
      "33": 1260,
      "feb": 1261,
      "spraying": 1262,
      "cowdung": 1263,
      "11": 1264,
      "even": 1265,
      "pepper": 1266,
      "yellow": 1267,
      "will": 1268,
      "assam": 1269,
      "fym": 1270,
      "dew": 1271,
      "pur": 1272,
      "been": 1273,
      "imid": 1274,
      "old": 1275,
      "ef": 1276,
      "cassava": 1277,
      "exper": 1278,
      "inject": 1279,
      "herb": 1280,
      "gar": 1281,
      "anth": 1282,
      "cauli": 1283,
      "lic": 1284,
      "22": 1285,
      "rad": 1286,
      "production": 1287,
      "what": 1288,
      "chem": 1289,
      "tab": 1290,
      "krish": 1291,
      "jul": 1292,
      "90": 1293,
      "bank": 1294,
      "cauliflower": 1295,
      "16": 1296,
      "yl": 1297,
      "rus": 1298,
      "practi": 1299,
      "vel": 1300,
      "insec": 1301,
      "ram": 1302,
      "ticide": 1303,
      "proper": 1304,
      "july": 1305,
      "lt": 1306,
      "fi": 1307,
      "les": 1308,
      "sy": 1309,
      "loprid": 1310,
      "eral": 1311,
      "dust": 1312,
      "chemical": 1313,
      "expert": 1314,
      "aff": 1315,
      "aux": 1316,
      "ility": 1317,
      "flo": 1318,
      "lemon": 1319,
      "assium": 1320,
      "herbicide": 1321,
      "fre": 1322,
      "vacc": 1323,
      "nit": 1324,
      "ax": 1325,
      "mildew": 1326,
      "bed": 1327,
      "hor": 1328,
      "sali": 1329,
      "cor": 1330,
      "boo": 1331,
      "directed": 1332,
      "beans": 1333,
      "suit": 1334,
      "bolus": 1335,
      "cit": 1336,
      "evening": 1337,
      "./": 1338,
      "try": 1339,
      "agricultural": 1340,
      "insecticide": 1341,
      "practice": 1342,
      "bio": 1343,
      "months": 1344,
      "agri": 1345,
      "have": 1346,
      "dep": 1347,
      "bordeaux": 1348,
      "irrigation": 1349,
      "600": 1350,
      "ginger": 1351,
      "la": 1352,
      "pan": 1353,
      "poul": 1354,
      "1gm": 1355,
      "fertilizers": 1356,
      "ycline": 1357,
      "rel": 1358,
      "dap": 1359,
      "ol": 1360,
      "betel": 1361,
      "foli": 1362,
      "ute": 1363,
      "very": 1364,
      "way": 1365,
      "----": 1366,
      "max": 1367,
      "poultry": 1368,
      "unt": 1369,
      "ili": 1370,
      "early": 1371,
      "5g": 1372,
      "weeks": 1373,
      "multi": 1374,
      "eating": 1375,
      "phosphate": 1376,
      "citrus": 1377,
      "fur": 1378,
      "tomycin": 1379,
      "beet": 1380,
      "suitable": 1381,
      "fol": 1382,
      "chlorpyri": 1383,
      "potassium": 1384,
      "kh": 1385,
      "arch": 1386,
      "part": 1387,
      "sum": 1388,
      "mah": 1389,
      "local": 1390,
      "),": 1391,
      "raj": 1392,
      "long": 1393,
      "half": 1394,
      "nec": 1395,
      "best": 1396,
      "transplanting": 1397,
      "breed": 1398,
      "ady": 1399,
      "finger": 1400,
      "rs": 1401,
      "thi": 1402,
      "krishi": 1403,
      "you": 1404,
      "dition": 1405,
      "ffer": 1406,
      "gal": 1407,
      "remo": 1408,
      "sub": 1409,
      "44": 1410,
      "dis": 1411,
      "inst": 1412,
      "moong": 1413,
      "follow": 1414,
      "distance": 1415,
      "ration": 1416,
      "ability": 1417,
      "conazole": 1418,
      "farming": 1419,
      "garlic": 1420,
      "seedlings": 1421,
      "ight": 1422,
      "card": 1423,
      "basal": 1424,
      "size": 1425,
      "ga": 1426,
      "os": 1427,
      "quer": 1428,
      "chick": 1429,
      "infection": 1430,
      "oxychloride": 1431,
      "once": 1432,
      "duck": 1433,
      "yan": 1434,
      "wa": 1435,
      "rese": 1436,
      "arka": 1437,
      "rin": 1438,
      "phone": 1439,
      "3g": 1440,
      "uary": 1441,
      "20g": 1442,
      "imidac": 1443,
      "curl": 1444,
      "thri": 1445,
      "endra": 1446,
      "sig": 1447,
      "mber": 1448,
      "january": 1449,
      "cake": 1450,
      "research": 1451,
      "toc": 1452,
      "your": 1453,
      "incre": 1454,
      "ema": 1455,
      "millet": 1456,
      "dimeth": 1457,
      "fungicide": 1458,
      "nove": 1459,
      "muri": 1460,
      "ator": 1461,
      "take": 1462,
      "mit": 1463,
      "az": 1464,
      "col": 1465,
      "bug": 1466,
      "affected": 1467,
      "muriate": 1468,
      "vig": 1469,
      "geon": 1470,
      "lect": 1471,
      "23": 1472,
      "thrips": 1473,
      "tain": 1474,
      "november": 1475,
      "shoot": 1476,
      "pack": 1477,
      "rainfall": 1478,
      "imidacloprid": 1479,
      "condition": 1480,
      "tri": 1481,
      "pigeon": 1482,
      "ous": 1483,
      "diseases": 1484,
      "late": 1485,
      "prov": 1486,
      "febru": 1487,
      "kendra": 1488,
      "meric": 1489,
      "28": 1490,
      "mg": 1491,
      "pri": 1492,
      "27": 1493,
      "offic": 1494,
      "boron": 1495,
      "show": 1496,
      "february": 1497,
      "blo": 1498,
      "iti": 1499,
      "ise": 1500,
      "querry": 1501,
      "prof": 1502,
      "jack": 1503,
      "cer": 1504,
      "gov": 1505,
      "aphids": 1506,
      "litr": 1507,
      "test": 1508,
      "ens": 1509,
      "train": 1510,
      "high": 1511,
      "ali": 1512,
      "foliar": 1513,
      "nutmeg": 1514,
      "blast": 1515,
      "turmeric": 1516,
      "multiplex": 1517,
      "vigyan": 1518,
      "pul": 1519,
      "rock": 1520,
      "lay": 1521,
      "rough": 1522,
      "sown": 1523,
      "tap": 1524,
      "domil": 1525,
      "tra": 1526,
      "sup": 1527,
      "mixed": 1528,
      "arest": 1529,
      "trans": 1530,
      "related": 1531,
      "micro": 1532,
      "om": 1533,
      "???": 1534,
      "drum": 1535,
      "cle": 1536,
      "amo": 1537,
      "ger": 1538,
      "mid": 1539,
      "when": 1540,
      "done": 1541,
      "94": 1542,
      "1kg": 1543,
      "availability": 1544,
      "ku": 1545,
      "mag": 1546,
      "soy": 1547,
      "ding": 1548,
      "sw": 1549,
      "nearest": 1550,
      "dam": 1551,
      "years": 1552,
      "36": 1553,
      "ket": 1554,
      "stick": 1555,
      "sun": 1556,
      "training": 1557,
      "ctin": 1558,
      "120": 1559,
      "pse": 1560,
      "anti": 1561,
      "veter": 1562,
      "ms": 1563,
      "hat": 1564,
      "ful": 1565,
      "ree": 1566,
      "loan": 1567,
      "ba": 1568,
      "calc": 1569,
      "mature": 1570,
      "officer": 1571,
      "over": 1572,
      "required": 1573,
      "sal": 1574,
      "nitrate": 1575,
      "streptomycin": 1576,
      "necess": 1577,
      "mectin": 1578,
      "arhar": 1579,
      "vet": 1580,
      "state": 1581,
      "dro": 1582,
      "tem": 1583,
      "rub": 1584,
      "hex": 1585,
      "50ec": 1586,
      "rown": 1587,
      "70": 1588,
      "cover": 1589,
      "cat": 1590,
      "inal": 1591,
      "pests": 1592,
      "veterin": 1593,
      "kgs": 1594,
      "further": 1595,
      "captan": 1596,
      "calcium": 1597,
      "necessary": 1598,
      "fen": 1599,
      "iod": 1600,
      "under": 1601,
      "?????": 1602,
      "benzo": 1603,
      "sor": 1604,
      "cond": 1605,
      "bar": 1606,
      "need": 1607,
      "benzoate": 1608,
      "oate": 1609,
      "cc": 1610,
      "second": 1611,
      "ns": 1612,
      "alli": 1613,
      "qua": 1614,
      "750": 1615,
      "summer": 1616,
      "gl": 1617,
      "5kg": 1618,
      "lady": 1619,
      "pare": 1620,
      "dressing": 1621,
      "package": 1622,
      "pseu": 1623,
      "cl": 1624,
      "vegetables": 1625,
      "transfer": 1626,
      "chlo": 1627,
      "dimethoate": 1628,
      "bird": 1629,
      "equ": 1630,
      "sl": 1631,
      "amount": 1632,
      "well": 1633,
      "wilting": 1634,
      "head": 1635,
      "mor": 1636,
      "than": 1637,
      "base": 1638,
      "tin": 1639,
      "govt": 1640,
      "iler": 1641,
      "there": 1642,
      "hexa": 1643,
      "dri": 1644,
      "mm": 1645,
      "uron": 1646,
      "flu": 1647,
      "booster": 1648,
      "my": 1649,
      "ano": 1650,
      "prole": 1651,
      "stro": 1652,
      "please": 1653,
      "pseudo": 1654,
      "uk": 1655,
      "plus": 1656,
      "ler": 1657,
      "advise": 1658,
      "29": 1659,
      "48": 1660,
      "ies": 1661,
      "sesame": 1662,
      "period": 1663,
      "vaccine": 1664,
      "iliprole": 1665,
      "edure": 1666,
      "remove": 1667,
      "78": 1668,
      "kar": 1669,
      "every": 1670,
      "emamectin": 1671,
      "pron": 1672,
      "cutting": 1673,
      "gard": 1674,
      "gg": 1675,
      "procedure": 1676,
      "beetle": 1677,
      "san": 1678,
      "increase": 1679,
      "each": 1680,
      "pronil": 1681,
      "raniliprole": 1682,
      "fipronil": 1683,
      "ux": 1684,
      "comp": 1685,
      "rose": 1686,
      "powd": 1687,
      "eff": 1688,
      "mater": 1689,
      "hexaconazole": 1690,
      "around": 1691,
      "1g": 1692,
      "ning": 1693,
      "three": 1694,
      "watermelon": 1695,
      "away": 1696,
      "mung": 1697,
      "grain": 1698,
      "sence": 1699,
      "fu": 1700,
      "powdery": 1701,
      "keep": 1702,
      "reme": 1703,
      "dip": 1704,
      "ona": 1705,
      "material": 1706,
      "gr": 1707,
      "captaf": 1708,
      "tet": 1709,
      "through": 1710,
      "manag": 1711,
      "phalli": 1712,
      "dropping": 1713,
      "diar": 1714,
      "streptoc": 1715,
      "med": 1716,
      "devel": 1717,
      "fruits": 1718,
      "war": 1719,
      "tern": 1720,
      "ud": 1721,
      "ween": 1722,
      "case": 1723,
      "near": 1724,
      "between": 1725,
      "insects": 1726,
      "type": 1727,
      "antraniliprole": 1728,
      "prepare": 1729,
      "ere": 1730,
      "ridomil": 1731,
      "bengal": 1732,
      "aug": 1733,
      "set": 1734,
      "ers": 1735,
      "hol": 1736,
      "21": 1737,
      "sand": 1738,
      "nutrients": 1739,
      "showing": 1740,
      "colo": 1741,
      "them": 1742,
      "gran": 1743,
      "ang": 1744,
      "chlorpyriphos": 1745,
      "sult": 1746,
      "prop": 1747,
      "fertili": 1748,
      "ue": 1749,
      "clean": 1750,
      "cultivate": 1751,
      "cast": 1752,
      "rage": 1753,
      "ghum": 1754,
      "nor": 1755,
      "lits": 1756,
      "nose": 1757,
      "sorghum": 1758,
      "ately": 1759,
      "ladys": 1760,
      "market": 1761,
      "garden": 1762,
      "absence": 1763,
      "remedy": 1764,
      "tal": 1765,
      "hoe": 1766,
      "ladysfinger": 1767,
      "nag": 1768,
      "star": 1769,
      "mus": 1770,
      "bran": 1771,
      "yellowing": 1772,
      "jute": 1773,
      "cen": 1774,
      "dow": 1775,
      "hours": 1776,
      "saic": 1777,
      "aste": 1778,
      "french": 1779,
      "wo": 1780,
      "sur": 1781,
      "liv": 1782,
      "medi": 1783,
      "aphal": 1784,
      "feeding": 1785,
      "adi": 1786,
      "broiler": 1787,
      "dex": 1788,
      "91": 1789,
      "res": 1790,
      "pen": 1791,
      "sour": 1792,
      "vir": 1793,
      "pra": 1794,
      "ade": 1795,
      "iry": 1796,
      "diarr": 1797,
      "reco": 1798,
      "partment": 1799,
      "equal": 1800,
      "tetrac": 1801,
      "ani": 1802,
      "ange": 1803,
      "mr": 1804,
      "followed": 1805,
      "weeds": 1806,
      "yoj": 1807,
      "mahaphal": 1808,
      "fos": 1809,
      "due": 1810,
      "its": 1811,
      "furad": 1812,
      "quality": 1813,
      "thia": 1814,
      "develop": 1815,
      "into": 1816,
      "department": 1817,
      "mosaic": 1818,
      "chlorop": 1819,
      "oxam": 1820,
      ".:": 1821,
      "hel": 1822,
      "mari": 1823,
      "sed": 1824,
      "methoxam": 1825,
      "serv": 1826,
      "mand": 1827,
      "redit": 1828,
      "storage": 1829,
      "nt": 1830,
      "ext": 1831,
      "bag": 1832,
      "credit": 1833,
      "rhi": 1834,
      "appro": 1835,
      "grass": 1836,
      "var": 1837,
      "contain": 1838,
      "wg": 1839,
      "agro": 1840,
      "chlorantraniliprole": 1841,
      "nd": 1842,
      "contaf": 1843,
      "hydro": 1844,
      "veterinary": 1845,
      "spon": 1846,
      "body": 1847,
      "altern": 1848,
      "unk": 1849,
      "mixing": 1850,
      "select": 1851,
      "regist": 1852,
      "milk": 1853,
      "guava": 1854,
      "uni": 1855,
      "uses": 1856,
      "using": 1857,
      "nano": 1858,
      "sesam": 1859,
      "sesamum": 1860,
      "trunk": 1861,
      "kin": 1862,
      "more": 1863,
      "chloropyri": 1864,
      "hum": 1865,
      "side": 1866,
      "emer": 1867,
      "monas": 1868,
      "grown": 1869,
      "portion": 1870,
      "fertiliser": 1871,
      "thiamethoxam": 1872,
      "wanted": 1873,
      "install": 1874,
      "mites": 1875,
      "ence": 1876,
      "chil": 1877,
      "harvesting": 1878,
      "sion": 1879,
      "cas": 1880,
      "germin": 1881,
      "rubber": 1882,
      "most": 1883,
      "fert": 1884,
      "august": 1885,
      "ni": 1886,
      "carb": 1887,
      "soybean": 1888,
      "suffer": 1889,
      "process": 1890,
      "2kg": 1891,
      "ata": 1892,
      "furadon": 1893,
      "ey": 1894,
      "plantation": 1895,
      "granu": 1896,
      "sol": 1897,
      "fac": 1898,
      "signs": 1899,
      "imum": 1900,
      "hoea": 1901,
      "peat": 1902,
      "registration": 1903,
      "ny": 1904,
      "source": 1905,
      "tel": 1906,
      "ination": 1907,
      "better": 1908,
      "depth": 1909,
      "marigold": 1910,
      "suffering": 1911,
      "acephate": 1912,
      "intal": 1913,
      "tech": 1914,
      "08": 1915,
      "nu": 1916,
      "ted": 1917,
      "meter": 1918,
      "plied": 1919,
      "where": 1920,
      "rhizo": 1921,
      "bb": 1922,
      "remain": 1923,
      "meal": 1924,
      "layer": 1925,
      "chilly": 1926,
      "ature": 1927,
      "recommen": 1928,
      "para": 1929,
      "iv": 1930,
      "pesticide": 1931,
      "initi": 1932,
      "ile": 1933,
      "fishery": 1934,
      "soils": 1935,
      "weeding": 1936,
      "date": 1937,
      "racnose": 1938,
      "needed": 1939,
      "5gm": 1940,
      "hu": 1941,
      "yclin": 1942,
      "emergen": 1943,
      "infected": 1944,
      "metre": 1945,
      "bud": 1946,
      "rabi": 1947,
      "nes": 1948,
      "nation": 1949,
      "zone": 1950,
      "raw": 1951,
      "ments": 1952,
      "available": 1953,
      "rajphos": 1954,
      "post": 1955,
      "38": 1956,
      "last": 1957,
      "ses": 1958,
      "regul": 1959,
      "block": 1960,
      "est": 1961,
      "granules": 1962,
      "350": 1963,
      "virus": 1964,
      "py": 1965,
      "fill": 1966,
      "come": 1967,
      "rup": 1968,
      "horti": 1969,
      "weedicide": 1970,
      "site": 1971,
      "vil": 1972,
      "december": 1973,
      "chloropyriphos": 1974,
      "oo": 1975,
      "hole": 1976,
      "replied": 1977,
      "development": 1978,
      "mly": 1979,
      "pits": 1980,
      "back": 1981,
      "class": 1982,
      "diarrhoea": 1983,
      "broad": 1984,
      "kcc": 1985,
      "ft": 1986,
      "milli": 1987,
      "pod": 1988,
      "kal": 1989,
      "depend": 1990,
      "dried": 1991,
      "maintain": 1992,
      "common": 1993,
      "carp": 1994,
      "tar": 1995,
      "full": 1996,
      "kno": 1997,
      "aring": 1998,
      "47": 1999,
      "add": 2000,
      "amar": 2001,
      "??????": 2002,
      "52": 2003,
      "fri": 2004,
      "table": 2005,
      "repeat": 2006,
      "pose": 2007,
      "110": 2008,
      "litchi": 2009,
      "impro": 2010,
      "bur": 2011,
      "light": 2012,
      "classic": 2013,
      "fine": 2014,
      "ort": 2015,
      "medic": 2016,
      "calf": 2017,
      "ander": 2018,
      "osto": 2019,
      "drenching": 2020,
      "anthracnose": 2021,
      "qui": 2022,
      "damping": 2023,
      ".,": 2024,
      "sing": 2025,
      "room": 2026,
      "imal": 2027,
      "rat": 2028,
      "varities": 2029,
      "improve": 2030,
      "gy": 2031,
      "schemes": 2032,
      "quintal": 2033,
      "syn": 2034,
      "gap": 2035,
      "pseudomonas": 2036,
      "dexona": 2037,
      "3ml": 2038,
      "bility": 2039,
      "both": 2040,
      "curling": 2041,
      "heal": 2042,
      "clo": 2043,
      "ces": 2044,
      "ough": 2045,
      "rotting": 2046,
      "abo": 2047,
      "read": 2048,
      "idhi": 2049,
      "ada": 2050,
      "installment": 2051,
      "gms": 2052,
      "vermi": 2053,
      ":-": 2054,
      "mone": 2055,
      "derma": 2056,
      "recommend": 2057,
      "edu": 2058,
      "72": 2059,
      "wait": 2060,
      "unch": 2061,
      "hydrochloride": 2062,
      "sponge": 2063,
      "decis": 2064,
      "docu": 2065,
      "oid": 2066,
      "animal": 2067,
      "terms": 2068,
      "system": 2069,
      "profex": 2070,
      "hand": 2071,
      "cori": 2072,
      "streptocycline": 2073,
      "wheat": 2074,
      "yojana": 2075,
      "weevil": 2076,
      "azadi": 2077,
      "io": 2078,
      "ppm": 2079,
      "smal": 2080,
      "oct": 2081,
      "redu": 2082,
      "brown": 2083,
      "does": 2084,
      "weight": 2085,
      "she": 2086,
      "feet": 2087,
      "10kg": 2088,
      "125": 2089,
      "chili": 2090,
      "eth": 2091,
      "health": 2092,
      "lar": 2093,
      "800": 2094,
      "level": 2095,
      "herbicides": 2096,
      "coriander": 2097,
      "lam": 2098,
      "spine": 2099,
      "point": 2100,
      "trench": 2101,
      "khari": 2102,
      "drain": 2103,
      "address": 2104,
      "cha": 2105,
      "differ": 2106,
      "birds": 2107,
      "eye": 2108,
      "ko": 2109,
      "wash": 2110,
      "place": 2111,
      "enro": 2112,
      "pomeg": 2113,
      "...": 2114,
      "2gram": 2115,
      "veria": 2116,
      "bunch": 2117,
      "ual": 2118,
      "consult": 2119,
      "controlling": 2120,
      "termite": 2121,
      "nos": 2122,
      "cartap": 2123,
      "3kg": 2124,
      "gun": 2125,
      "jgl": 2126,
      "anthus": 2127,
      "flox": 2128,
      "emergence": 2129,
      "straw": 2130,
      "46": 2131,
      "fl": 2132,
      "tho": 2133,
      "ased": 2134,
      "remaining": 2135,
      "small": 2136,
      "icle": 2137,
      "ranate": 2138,
      "india": 2139,
      "kharif": 2140,
      "immature": 2141,
      "centre": 2142,
      "55": 2143,
      "tuber": 2144,
      "rhizome": 2145,
      "bin": 2146,
      "purpose": 2147,
      "yard": 2148,
      "edule": 2149,
      "tricho": 2150,
      "samman": 2151,
      "temper": 2152,
      "nidhi": 2153,
      "wind": 2154,
      "region": 2155,
      "egg": 2156,
      "spread": 2157,
      "ils": 2158,
      "provide": 2159,
      "branch": 2160,
      "nesium": 2161,
      "ging": 2162,
      "amaranthus": 2163,
      "such": 2164,
      "owar": 2165,
      "10g": 2166,
      "32": 2167,
      "pomegranate": 2168,
      "aon": 2169,
      "line": 2170,
      "rach": 2171,
      "tetracycline": 2172,
      "temperature": 2173,
      "bass": 2174,
      "jas": 2175,
      "len": 2176,
      "mine": 2177,
      "chlorpyrifos": 2178,
      "morning": 2179,
      "ika": 2180,
      "prev": 2181,
      "genta": 2182,
      "recomended": 2183,
      "jowar": 2184,
      "lies": 2185,
      "depending": 2186,
      "knol": 2187,
      "1st": 2188,
      "orange": 2189,
      "properly": 2190,
      "documents": 2191,
      "tis": 2192,
      "scien": 2193,
      "piglet": 2194,
      "improv": 2195,
      "requir": 2196,
      "khol": 2197,
      "ado": 2198,
      "hopper": 2199,
      "1250": 2200,
      "caps": 2201,
      "trichoderma": 2202,
      "istant": 2203,
      "thrin": 2204,
      "icum": 2205,
      "mast": 2206,
      "new": 2207,
      "radish": 2208,
      "mush": 2209,
      "spo": 2210,
      "dolo": 2211,
      "pred": 2212,
      "500g": 2213,
      "poly": 2214,
      "schedule": 2215,
      "flies": 2216,
      "vaccination": 2217,
      "ner": 2218,
      "stat": 2219,
      "mili": 2220,
      "miner": 2221,
      "lan": 2222,
      "initiation": 2223,
      "vermicompost": 2224,
      "mushroom": 2225,
      "ctor": 2226,
      "iana": 2227,
      "make": 2228,
      "ather": 2229,
      "drying": 2230,
      "germination": 2231,
      "requirment": 2232,
      "quinal": 2233,
      "chicken": 2234,
      "vim": 2235,
      "spa": 2236,
      "growing": 2237,
      "dissol": 2238,
      "company": 2239,
      "soon": 2240,
      "ative": 2241,
      "prun": 2242,
      "bassiana": 2243,
      "now": 2244,
      "paste": 2245,
      "fold": 2246,
      "magnesium": 2247,
      "sel": 2248,
      "controll": 2249,
      "ycine": 2250,
      "rachtin": 2251,
      "cin": 2252,
      "jit": 2253,
      "service": 2254,
      "next": 2255,
      "pointed": 2256,
      "66": 2257,
      "normal": 2258,
      "50kg": 2259,
      "quinalphos": 2260,
      "jor": 2261,
      "kill": 2262,
      "ply": 2263,
      "jasmine": 2264,
      "ker": 2265,
      "arly": 2266,
      "azadirachtin": 2267,
      "different": 2268,
      "ris": 2269,
      "vimeral": 2270,
      "general": 2271,
      "3gm": 2272,
      "65": 2273,
      "cora": 2274,
      "suran": 2275,
      "vo": 2276,
      "ird": 2277,
      "less": 2278,
      "uran": 2279,
      "ci": 2280,
      "ya": 2281,
      "immedi": 2282,
      "phy": 2283,
      "capsicum": 2284,
      "tha": 2285,
      "die": 2286,
      "free": 2287,
      "ki": 2288,
      "ves": 2289,
      "exc": 2290,
      "plough": 2291,
      "dhi": 2292,
      "salt": 2293,
      "shade": 2294,
      "kufri": 2295,
      "quin": 2296,
      "ooze": 2297,
      "dolomite": 2298,
      "trees": 2299,
      "istance": 2300,
      "100g": 2301,
      "port": 2302,
      "nitro": 2303,
      "sis": 2304,
      "fed": 2305,
      "preg": 2306,
      "ating": 2307,
      "apple": 2308,
      "manager": 2309,
      "suck": 2310,
      "emul": 2311,
      "product": 2312,
      "downy": 2313,
      "gery": 2314,
      "only": 2315,
      "240": 2316,
      "noble": 2317,
      "emulsion": 2318,
      "hormone": 2319,
      "sag": 2320,
      "decompo": 2321,
      "shed": 2322,
      "humid": 2323,
      "ob": 2324,
      "avoid": 2325,
      "hati": 2326,
      "stom": 2327,
      "ranjit": 2328,
      "ane": 2329,
      "lim": 2330,
      "afen": 2331,
      "tiller": 2332,
      "status": 2333,
      "pa": 2334,
      "wet": 2335,
      "beau": 2336,
      "empt": 2337,
      "horticulture": 2338,
      "jag": 2339,
      "lin": 2340,
      "utes": 2341,
      "guwa": 2342,
      "panicle": 2343,
      "folder": 2344,
      "pregn": 2345,
      ")/": 2346,
      "4kg": 2347,
      "tak": 2348,
      "names": 2349,
      "empty": 2350,
      "ukhi": 2351,
      "ahead": 2352,
      "beauveria": 2353,
      "guwahati": 2354,
      "crown": 2355,
      "eries": 2356,
      "another": 2357,
      "stru": 2358,
      "**": 2359,
      "900": 2360,
      "foot": 2361,
      "strobin": 2362,
      "humidity": 2363,
      "clu": 2364,
      "mom": 2365,
      "subsi": 2366,
      "cattle": 2367,
      "minutes": 2368,
      "prevent": 2369,
      "din": 2370,
      "uth": 2371,
      "betelvine": 2372,
      "icon": 2373,
      "50g": 2374,
      "carda": 2375,
      "carbof": 2376,
      "tobac": 2377,
      "manures": 2378,
      "atio": 2379,
      "thane": 2380,
      "jal": 2381,
      "complex": 2382,
      "quanti": 2383,
      "atic": 2384,
      "soap": 2385,
      "stomach": 2386,
      "usage": 2387,
      "vers": 2388,
      "knm": 2389,
      "sin": 2390,
      "propicon": 2391,
      "cardamom": 2392,
      "tobacco": 2393,
      "pass": 2394,
      "vety": 2395,
      "nov": 2396,
      "444": 2397,
      "agromin": 2398,
      "ail": 2399,
      "sulph": 2400,
      "effec": 2401,
      "single": 2402,
      "non": 2403,
      "nal": 2404,
      "stand": 2405,
      "thiuron": 2406,
      "160": 2407,
      "house": 2408,
      "vided": 2409,
      "moist": 2410,
      "minimum": 2411,
      "syngenta": 2412,
      "recommendation": 2413,
      "face": 2414,
      "matur": 2415,
      "testing": 2416,
      "help": 2417,
      "sever": 2418,
      "coco": 2419,
      "bhat": 2420,
      "surance": 2421,
      "cluster": 2422,
      "95": 2423,
      "hin": 2424,
      "insurance": 2425,
      "anap": 2426,
      "micronutrients": 2427,
      "many": 2428,
      "sunflower": 2429,
      "propiconazole": 2430,
      "--------": 2431,
      "quantity": 2432,
      "kam": 2433,
      "12kg": 2434,
      "gly": 2435,
      "stop": 2436,
      "elly": 2437,
      "butan": 2438,
      "medicine": 2439,
      "fin": 2440,
      "nap": 2441,
      "son": 2442,
      "9435": 2443,
      "lab": 2444,
      "warf": 2445,
      "versity": 2446,
      "6444": 2447,
      "cing": 2448,
      "resc": 2449,
      "forte": 2450,
      "deep": 2451,
      "angana": 2452,
      "85": 2453,
      "What": 2454,
      "diafen": 2455,
      "2nd": 2456,
      "basin": 2457,
      "worms": 2458,
      "transfered": 2459,
      "ioca": 2460,
      "earth": 2461,
      "chemicals": 2462,
      "tapioca": 2463,
      "telangana": 2464,
      "gingelly": 2465,
      "How": 2466,
      "dressed": 2467,
      "drin": 2468,
      "farmers": 2469,
      "cuttings": 2470,
      "amister": 2471,
      "aver": 2472,
      "khanap": 2473,
      "nitrogen": 2474,
      "%)": 2475,
      "thrice": 2476,
      "ii": 2477,
      "height": 2478,
      "imidach": 2479,
      "university": 2480,
      "bri": 2481,
      "don": 2482,
      "approach": 2483,
      "320": 2484,
      "ved": 2485,
      "nutri": 2486,
      "blue": 2487,
      "melonex": 2488,
      "pes": 2489,
      "activ": 2490,
      "chand": 2491,
      "poli": 2492,
      "carbofuran": 2493,
      "41": 2494,
      "jo": 2495,
      "manual": 2496,
      "colour": 2497,
      "ten": 2498,
      "cum": 2499,
      "Use": 2500,
      "50gm": 2501,
      "20kg": 2502,
      "roots": 2503,
      "vita": 2504,
      "khanapara": 2505,
      "37": 2506,
      "price": 2507,
      "ystrobin": 2508,
      "pumkin": 2509,
      "weather": 2510,
      "preven": 2511,
      "benef": 2512,
      "parts": 2513,
      "tific": 2514,
      "chec": 2515,
      "diam": 2516,
      "dithane": 2517,
      "great": 2518,
      "promo": 2519,
      "irrigate": 2520,
      "34": 2521,
      "they": 2522,
      "itis": 2523,
      "drinking": 2524,
      "dwarf": 2525,
      "thal": 2526,
      "bold": 2527,
      "fruiting": 2528,
      "colle": 2529,
      "surface": 2530,
      "mealy": 2531,
      "fus": 2532,
      "leafy": 2533,
      "fertlizer": 2534,
      "aad": 2535,
      "put": 2536,
      "radi": 2537,
      "allow": 2538,
      "ambi": 2539,
      "tomycine": 2540,
      "biotic": 2541,
      "sprayed": 2542,
      "subsidy": 2543,
      "bul": 2544,
      "tial": 2545,
      "contin": 2546,
      "maturity": 2547,
      "intra": 2548,
      "kab": 2549,
      "stre": 2550,
      "sue": 2551,
      "jorhat": 2552,
      "lak": 2553,
      "nem": 2554,
      "centime": 2555,
      "diafenthiuron": 2556,
      "3rd": 2557,
      "mz": 2558,
      "ratio": 2559,
      "instit": 2560,
      "alternate": 2561,
      ".-": 2562,
      "bearing": 2563,
      "inclu": 2564,
      "collect": 2565,
      "resistant": 2566,
      "ivy": 2567,
      "aau": 2568,
      "dog": 2569,
      "provided": 2570,
      "illium": 2571,
      "monsoon": 2572,
      "net": 2573,
      "swe": 2574,
      "till": 2575,
      "lich": 2576,
      "peration": 2577,
      "nment": 2578,
      "moh": 2579,
      "96": 2580,
      "tonic": 2581,
      "effect": 2582,
      "kamrup": 2583,
      "que": 2584,
      "borers": 2585,
      "caterpiller": 2586,
      "caterpillars": 2587,
      "temp": 2588,
      "sulphur": 2589,
      "kabuli": 2590,
      "mas": 2591,
      "sna": 2592,
      "ants": 2593,
      "gover": 2594,
      "redgram": 2595,
      "promoter": 2596,
      "ahu": 2597,
      "gin": 2598,
      "inch": 2599,
      "program": 2600,
      "---": 2601,
      "five": 2602,
      "antibiotic": 2603,
      "above": 2604,
      "recommand": 2605,
      "respective": 2606,
      "enrocin": 2607,
      "04": 2608,
      "ima": 2609,
      "prox": 2610,
      "100gm": 2611,
      "???????": 2612,
      "profen": 2613,
      "zine": 2614,
      "met": 2615,
      "metal": 2616,
      "dolich": 2617,
      "pear": 2618,
      "shi": 2619,
      "31": 2620,
      "dar": 2621,
      "indu": 2622,
      "viral": 2623,
      "purple": 2624,
      "kun": 2625,
      "planted": 2626,
      "1000": 2627,
      "alo": 2628,
      "destro": 2629,
      "tract": 2630,
      "open": 2631,
      "destroy": 2632,
      ")-": 2633,
      "rele": 2634,
      "within": 2635,
      "methrin": 2636,
      "stocking": 2637,
      "excess": 2638,
      "700": 2639,
      "ll": 2640,
      "ids": 2641,
      "fici": 2642,
      "94350": 2643,
      "soya": 2644,
      "nuv": 2645,
      "ele": 2646,
      "ness": 2647,
      "holes": 2648,
      "ostovet": 2649,
      "zer": 2650,
      "check": 2651,
      "answ": 2652,
      "sulf": 2653,
      "damage": 2654,
      "6kg": 2655,
      "ew": 2656,
      "va": 2657,
      "chana": 2658,
      "plement": 2659,
      "institute": 2660,
      "1m": 2661,
      "agril": 2662,
      "fever": 2663,
      "vertic": 2664,
      "spin": 2665,
      "trap": 2666,
      "regulator": 2667,
      "ff": 2668,
      "nr": 2669,
      "susp": 2670,
      "exp": 2671,
      "power": 2672,
      "start": 2673,
      "pesticides": 2674,
      "radius": 2675,
      "914": 2676,
      "pu": 2677,
      "moth": 2678,
      "20ec": 2679,
      "makes": 2680,
      "immediately": 2681,
      "ned": 2682,
      "mec": 2683,
      "store": 2684,
      "halo": 2685,
      "mineral": 2686,
      "cyper": 2687,
      "casia": 2688,
      "tablet": 2689,
      "nutrition": 2690,
      "answer": 2691,
      "air": 2692,
      "ped": 2693,
      "plac": 2694,
      "mob": 2695,
      "wound": 2696,
      "government": 2697,
      "mol": 2698,
      "arium": 2699,
      "flood": 2700,
      "breeding": 2701,
      "wood": 2702,
      "effective": 2703,
      "imidachloprid": 2704,
      "pride": 2705,
      "containing": 2706,
      "cre": 2707,
      "ei": 2708,
      "sele": 2709,
      "soak": 2710,
      "10gm": 2711,
      "poor": 2712,
      "colocasia": 2713,
      "insecticides": 2714,
      "arize": 2715,
      "saline": 2716,
      "yam": 2717,
      "400gm": 2718,
      "sition": 2719,
      "centimeter": 2720,
      "dolichos": 2721,
      "flowers": 2722,
      "axils": 2723,
      "sym": 2724,
      "dept": 2725,
      "irrigated": 2726,
      "mtu": 2727,
      "roto": 2728,
      "spary": 2729,
      "content": 2730,
      "agrimin": 2731,
      "ose": 2732,
      "assistance": 2733,
      "sweet": 2734,
      "bd": 2735,
      "cost": 2736,
      "asing": 2737,
      "cham": 2738,
      "bags": 2739,
      "cial": 2740,
      "f1": 2741,
      "liver": 2742,
      "dairy": 2743,
      "castor": 2744,
      "gand": 2745,
      "monoc": 2746,
      "fisheries": 2747,
      "scri": 2748,
      "programme": 2749,
      "mycin": 2750,
      "sil": 2751,
      "ving": 2752,
      "ready": 2753,
      "ider": 2754,
      "cultivated": 2755,
      "carrot": 2756,
      "covered": 2757,
      "yr": 2758,
      "ान": 2759,
      "separ": 2760,
      "asal": 2761,
      "book": 2762,
      "180": 2763,
      "prepared": 2764,
      "cris": 2765,
      "pat": 2766,
      "tori": 2767,
      ")@": 2768,
      "waste": 2769,
      "chry": 2770,
      "upto": 2771,
      "improved": 2772,
      "4ml": 2773,
      "ji": 2774,
      "squ": 2775,
      "liqu": 2776,
      "chicks": 2777,
      "center": 2778,
      "cel": 2779,
      "gro": 2780,
      "jyo": 2781,
      "pun": 2782,
      "ching": 2783,
      "uring": 2784,
      "tami": 2785,
      "cularly": 2786,
      "conditions": 2787,
      "rotophos": 2788,
      "ced": 2789,
      "hav": 2790,
      "sury": 2791,
      "ek": 2792,
      "plet": 2793,
      "bordeux": 2794,
      "medium": 2795,
      "east": 2796,
      "phyl": 2797,
      "kran": 2798,
      "thin": 2799,
      "these": 2800,
      "rows": 2801,
      "army": 2802,
      "symp": 2803,
      "hus": 2804,
      "acron": 2805,
      "dium": 2806,
      "tebu": 2807,
      "ension": 2808,
      "bam": 2809,
      "mach": 2810,
      "upon": 2811,
      "thene": 2812,
      "bbbb": 2813,
      "moisture": 2814,
      "liquid": 2815,
      "tebuconazole": 2816,
      "ible": 2817,
      "्र": 2818,
      "tim": 2819,
      "endran": 2820,
      "wants": 2821,
      "monocrotophos": 2822,
      "dder": 2823,
      "rhin": 2824,
      "ally": 2825,
      "injection": 2826,
      "themum": 2827,
      "predic": 2828,
      "either": 2829,
      "rnr": 2830,
      "tilizer": 2831,
      "ale": 2832,
      "complet": 2833,
      "fodder": 2834,
      "procure": 2835,
      "rambutan": 2836,
      "average": 2837,
      "nemato": 2838,
      "cristoc": 2839,
      "01": 2840,
      "sap": 2841,
      "sms": 2842,
      "bev": 2843,
      "west": 2844,
      "cropping": 2845,
      "noval": 2846,
      "45cm": 2847,
      "cus": 2848,
      "das": 2849,
      "santhemum": 2850,
      "dissolve": 2851,
      "college": 2852,
      "verticillium": 2853,
      "1500": 2854,
      "atory": 2855,
      "midge": 2856,
      "sheath": 2857,
      "pin": 2858,
      "ury": 2859,
      "ploughing": 2860,
      "police": 2861,
      "42": 2862,
      "crac": 2863,
      "mt": 2864,
      "agar": 2865,
      "30kg": 2866,
      "tractor": 2867,
      "whitefly": 2868,
      "liming": 2869,
      "diseased": 2870,
      "halothrin": 2871,
      "symptom": 2872,
      "bevistin": 2873,
      "fm": 2874,
      "tata": 2875,
      "fusarium": 2876,
      "ier": 2877,
      "skin": 2878,
      "dib": 2879,
      "bene": 2880,
      "hispa": 2881,
      "following": 2882,
      "streptocyclin": 2883,
      "waiting": 2884,
      "reduce": 2885,
      "ambiplex": 2886,
      "metalax": 2887,
      "jass": 2888,
      "ste": 2889,
      "food": 2890,
      "short": 2891,
      "-----": 2892,
      "kuchi": 2893,
      "techn": 2894,
      "preventive": 2895,
      "call": 2896,
      "sit": 2897,
      "ragi": 2898,
      "active": 2899,
      "plantomycin": 2900,
      "km": 2901,
      "their": 2902,
      "ja": 2903,
      "enh": 2904,
      "below": 2905,
      "while": 2906,
      "saw": 2907,
      "cocoa": 2908,
      "chrysanthemum": 2909,
      "metalaxyl": 2910,
      "mud": 2911,
      "result": 2912,
      "apr": 2913,
      "sodium": 2914,
      "four": 2915,
      "mahaf": 2916,
      "suppli": 2917,
      "technical": 2918,
      "plast": 2919,
      "prophyl": 2920,
      "soyabean": 2921,
      "nematode": 2922,
      "cro": 2923,
      "why": 2924,
      "burn": 2925,
      "115": 2926,
      "74": 2927,
      "sure": 2928,
      "coor": 2929,
      "mange": 2930,
      "expal": 2931,
      "poss": 2932,
      "dhain": 2933,
      "maximum": 2934,
      "udder": 2935,
      "healthy": 2936,
      "fasal": 2937,
      "quick": 2938,
      "curry": 2939,
      "dhaincha": 2940,
      "toler": 2941,
      "amukhi": 2942,
      "piec": 2943,
      "kranti": 2944,
      "bamboo": 2945,
      "130": 2946,
      "118": 2947,
      "jab": 2948,
      "ined": 2949,
      "third": 2950,
      "lix": 2951,
      "div": 2952,
      "mosam": 2953,
      "10ml": 2954,
      "kahi": 2955,
      "formul": 2956,
      "prefer": 2957,
      "heat": 2958,
      "infuse": 2959,
      "based": 2960,
      "supplement": 2961,
      "managment": 2962,
      "nagaon": 2963,
      "mosambi": 2964,
      "210": 2965,
      "nat": 2966,
      "pay": 2967,
      "count": 2968,
      "samru": 2969,
      "filled": 2970,
      "vill": 2971,
      "succ": 2972,
      "ector": 2973,
      "cause": 2974,
      "topic": 2975,
      "ocer": 2976,
      "oxygen": 2977,
      "apl": 2978,
      "gall": 2979,
      "mu": 2980,
      "ala": 2981,
      "icar": 2982,
      "biovita": 2983,
      "comes": 2984,
      "gandhi": 2985,
      "rhinocer": 2986,
      "deka": 2987,
      "dhanu": 2988,
      "phosate": 2989,
      "jyoti": 2990,
      "final": 2991,
      "whole": 2992,
      "bread": 2993,
      "broadcast": 2994,
      "pac": 2995,
      "descri": 2996,
      "jackfruit": 2997,
      "pregnant": 2998,
      "glyphosate": 2999,
      "mobile": 3000,
      "eed": 3001,
      "fem": 3002,
      "aphol": 3003,
      "castration": 3004,
      "9kg": 3005,
      "spi": 3006,
      "tare": 3007,
      "heav": 3008,
      "polythene": 3009,
      "having": 3010,
      "nel": 3011,
      "extract": 3012,
      "15kg": 3013,
      "rainy": 3014,
      "boost": 3015,
      "tall": 3016,
      "vin": 3017,
      "200g": 3018,
      "yielding": 3019,
      "nagar": 3020,
      "inform": 3021,
      "abad": 3022,
      "wide": 3023,
      "intervals": 3024,
      "rocket": 3025,
      "marketing": 3026,
      "cristocycline": 3027,
      "98": 3028,
      "ught": 3029,
      "inner": 3030,
      "megh": 3031,
      "beds": 3032,
      "compati": 3033,
      "taken": 3034,
      "benefit": 3035,
      "140": 3036,
      "bone": 3037,
      "kia": 3038,
      "ors": 3039,
      "ene": 3040,
      "account": 3041,
      "viri": 3042,
      "tillering": 3043,
      "napier": 3044,
      "psum": 3045,
      "road": 3046,
      "bee": 3047,
      "fluben": 3048,
      "keral": 3049,
      "stock": 3050,
      "bittergourd": 3051,
      "250g": 3052,
      "kerala": 3053,
      "actic": 3054,
      "lixen": 3055,
      "gur": 3056,
      "kul": 3057,
      "sim": 3058,
      "ofen": 3059,
      "leg": 3060,
      "coming": 3061,
      "fertiliz": 3062,
      "amine": 3063,
      "alised": 3064,
      "kahikuchi": 3065,
      "topicure": 3066,
      "gth": 3067,
      "night": 3068,
      "vector": 3069,
      "ota": 3070,
      "board": 3071,
      "neo": 3072,
      "methyl": 3073,
      "incor": 3074,
      "suckers": 3075,
      "bay": 3076,
      "grub": 3077,
      "saf": 3078,
      "litter": 3079,
      "getting": 3080,
      "warded": 3081,
      "drainage": 3082,
      "hec": 3083,
      "char": 3084,
      "deworm": 3085,
      "monthly": 3086,
      "drumstick": 3087,
      "jaggery": 3088,
      "predicted": 3089,
      "fmd": 3090,
      "jassids": 3091,
      "pott": 3092,
      "causes": 3093,
      "lings": 3094,
      "incorpor": 3095,
      "six": 3096,
      "avil": 3097,
      "web": 3098,
      "register": 3099,
      "fungicides": 3100,
      "supply": 3101,
      "tetracyclin": 3102,
      "cypermethrin": 3103,
      "suppliment": 3104,
      "77": 3105,
      "was": 3106,
      "rous": 3107,
      "coc": 3108,
      "forwarded": 3109,
      "fluo": 3110,
      "nationalised": 3111,
      "ostocalcium": 3112,
      "suspected": 3113,
      "selection": 3114,
      "dhanuka": 3115,
      "fa": 3116,
      "areas": 3117,
      "transplanted": 3118,
      "novaluron": 3119,
      "constru": 3120,
      "lecan": 3121,
      "stages": 3122,
      "pseudostem": 3123,
      "expalined": 3124,
      "samrud": 3125,
      "2m": 3126,
      "iced": 3127,
      "bel": 3128,
      "20ml": 3129,
      "materials": 3130,
      "varity": 3131,
      "cracking": 3132,
      "64": 3133,
      "wid": 3134,
      "ammon": 3135,
      "punjab": 3136,
      "fluoresc": 3137,
      "):": 3138,
      "05": 3139,
      "ward": 3140,
      "difen": 3141,
      "director": 3142,
      "krishna": 3143,
      "thora": 3144,
      "including": 3145,
      "ances": 3146,
      "tol": 3147,
      "peas": 3148,
      "treated": 3149,
      "accor": 3150,
      "ethyl": 3151,
      "recommanded": 3152,
      "possible": 3153,
      "taf": 3154,
      "anist": 3155,
      "attain": 3156,
      "least": 3157,
      "logy": 3158,
      "mangement": 3159,
      "breadth": 3160,
      "ball": 3161,
      "uton": 3162,
      "applying": 3163,
      "gundhi": 3164,
      "passbook": 3165,
      "suryamukhi": 3166,
      "procurement": 3167,
      "width": 3168,
      "080": 3169,
      "range": 3170,
      "spots": 3171,
      "3000": 3172,
      "length": 3173,
      "according": 3174,
      "making": 3175,
      "various": 3176,
      "loc": 3177,
      "borux": 3178,
      "25gm": 3179,
      "chamat": 3180,
      "rust": 3181,
      "stored": 3182,
      "ously": 3183,
      "chamatkar": 3184,
      "gs": 3185,
      "sad": 3186,
      "winter": 3187,
      "arian": 3188,
      "garh": 3189,
      "036": 3190,
      "1200": 3191,
      "bima": 3192,
      "gon": 3193,
      "ofop": 3194,
      "ases": 3195,
      "gypsum": 3196,
      "fluton": 3197,
      "diamide": 3198,
      "aking": 3199,
      "ें": 3200,
      "ising": 3201,
      "ult": 3202,
      "pour": 3203,
      "muk": 3204,
      "buck": 3205,
      "golden": 3206,
      "decide": 3207,
      "toria": 3208,
      "flubendiamide": 3209,
      "8kg": 3210,
      "enqui": 3211,
      "male": 3212,
      "100ml": 3213,
      "tsf": 3214,
      "inic": 3215,
      "eding": 3216,
      "mani": 3217,
      "18kg": 3218,
      "....": 3219,
      "veterinarian": 3220,
      "nearby": 3221,
      "mastitis": 3222,
      "dibru": 3223,
      "048": 3224,
      "ae": 3225,
      "sted": 3226,
      "diet": 3227,
      "gmail": 3228,
      "palms": 3229,
      "decre": 3230,
      "regional": 3231,
      "severe": 3232,
      "female": 3233,
      "hectare": 3234,
      "bal": 3235,
      "hot": 3236,
      "sri": 3237,
      "import": 3238,
      "loam": 3239,
      "whe": 3240,
      "ensity": 3241,
      "drip": 3242,
      "humic": 3243,
      "techno": 3244,
      "target": 3245,
      "lakhim": 3246,
      "resp": 3247,
      "rod": 3248,
      "athi": 3249,
      "splits": 3250,
      "rink": 3251,
      "gging": 3252,
      "09": 3253,
      "230": 3254,
      "4th": 3255,
      "made": 3256,
      "wn": 3257,
      "wr": 3258,
      "toge": 3259,
      "semi": 3260,
      "enti": 3261,
      "idence": 3262,
      "report": 3263,
      "prophylactic": 3264,
      "vle": 3265,
      "endi": 3266,
      "action": 3267,
      "25kg": 3268,
      "acetami": 3269,
      "increasing": 3270,
      "cleaning": 3271,
      "pendimeth": 3272,
      "lancer": 3273,
      "continue": 3274,
      "later": 3275,
      "tan": 3276,
      "hold": 3277,
      "toxic": 3278,
      "neck": 3279,
      "dibrugarh": 3280,
      "together": 3281,
      "cof": 3282,
      "care": 3283,
      "sban": 3284,
      "rim": 3285,
      "ribu": 3286,
      "bhendi": 3287,
      "tilt": 3288,
      "mohaphol": 3289,
      "cif": 3290,
      "kha": 3291,
      "alin": 3292,
      "mouth": 3293,
      "10lit": 3294,
      "bhut": 3295,
      "dosages": 3296,
      "boll": 3297,
      "syrup": 3298,
      "catter": 3299,
      "deworming": 3300,
      "just": 3301,
      "adhar": 3302,
      "adviced": 3303,
      "acetamiprid": 3304,
      "ug": 3305,
      "spider": 3306,
      "kee": 3307,
      "pine": 3308,
      "ren": 3309,
      "vitamins": 3310,
      "removal": 3311,
      "propag": 3312,
      "06": 3313,
      "2o": 3314,
      "band": 3315,
      "branches": 3316,
      "tissue": 3317,
      "generally": 3318,
      "sg": 3319,
      "mox": 3320,
      "found": 3321,
      "flora": 3322,
      "rhinoceros": 3323,
      "density": 3324,
      "ekal": 3325,
      "ural": 3326,
      "yes": 3327,
      "ulcer": 3328,
      "amist": 3329,
      "40g": 3330,
      "rainfed": 3331,
      "prim": 3332,
      "higher": 3333,
      "ammonium": 3334,
      "technology": 3335,
      "amistar": 3336,
      "5th": 3337,
      "cli": 3338,
      "mis": 3339,
      "change": 3340,
      "bleeding": 3341,
      "dursban": 3342,
      "fishes": 3343,
      "young": 3344,
      "numbers": 3345,
      "prior": 3346,
      "standing": 3347,
      "plastic": 3348,
      "formulation": 3349,
      "aplly": 3350,
      "compatibility": 3351,
      "423": 3352,
      "5lit": 3353,
      "bho": 3354,
      "dra": 3355,
      "anam": 3356,
      "termites": 3357,
      "fertility": 3358,
      "sulfur": 3359,
      "sides": 3360,
      "snake": 3361,
      "sapota": 3362,
      "coordin": 3363,
      "ofenprox": 3364,
      "sk": 3365,
      "ution": 3366,
      "total": 3367,
      "concent": 3368,
      "sos": 3369,
      "etofenprox": 3370,
      "rich": 3371,
      "composition": 3372,
      "forest": 3373,
      "laim": 3374,
      "cross": 3375,
      "ekalux": 3376,
      "63": 3377,
      "gical": 3378,
      "pana": 3379,
      "sar": 3380,
      "ital": 3381,
      "fee": 3382,
      "caused": 3383,
      "sent": 3384,
      "collar": 3385,
      "container": 3386,
      "nuvacron": 3387,
      "pendimethalin": 3388,
      "dil": 3389,
      "graf": 3390,
      "1800": 3391,
      "agrimycin": 3392,
      "mililitre": 3393,
      "mascularly": 3394,
      "expected": 3395,
      "mahafal": 3396,
      "payment": 3397,
      "233": 3398,
      "je": 3399,
      "gave": 3400,
      "facility": 3401,
      "pruning": 3402,
      "heavy": 3403,
      "ribution": 3404,
      "floraboost": 3405,
      "5m": 3406,
      "cash": 3407,
      "cry": 3408,
      "dish": 3409,
      "ks": 3410,
      "tv": 3411,
      "cho": 3412,
      "hour": 3413,
      "mastil": 3414,
      "keeping": 3415,
      "redomil": 3416,
      "sep": 3417,
      "kgram": 3418,
      "imax": 3419,
      "suggestion": 3420,
      "ideal": 3421,
      "blac": 3422,
      "cyhalothrin": 3423,
      "ifen": 3424,
      "170": 3425,
      "siv": 3426,
      "panac": 3427,
      "92": 3428,
      "dan": 3429,
      "fun": 3430,
      "कर": 3431,
      "के": 3432,
      "atra": 3433,
      "loo": 3434,
      "phyto": 3435,
      "kid": 3436,
      "twi": 3437,
      "see": 3438,
      "enqu": 3439,
      "urry": 3440,
      "dig": 3441,
      "berry": 3442,
      "ustad": 3443,
      "buff": 3444,
      "tolerant": 3445,
      "panama": 3446,
      "blackgram": 3447,
      "xin": 3448,
      "achlor": 3449,
      "tricycl": 3450,
      "horse": 3451,
      "68": 3452,
      "uro": 3453,
      "rest": 3454,
      "ond": 3455,
      "amp": 3456,
      "????????": 3457,
      "triflox": 3458,
      "layering": 3459,
      "lamb": 3460,
      "science": 3461,
      "located": 3462,
      "67": 3463,
      "nendran": 3464,
      "ura": 3465,
      "warm": 3466,
      "xystrobin": 3467,
      "का": 3468,
      "scienti": 3469,
      "spinach": 3470,
      "cifax": 3471,
      "trifloxystrobin": 3472,
      "oint": 3473,
      "order": 3474,
      "mangan": 3475,
      "pump": 3476,
      "halves": 3477,
      "baj": 3478,
      "mecron": 3479,
      "coffee": 3480,
      "ities": 3481,
      "dimecron": 3482,
      "proot": 3483,
      "preperation": 3484,
      "protect": 3485,
      "quiz": 3486,
      "scientist": 3487,
      "had": 3488,
      "tm": 3489,
      "tara": 3490,
      "pois": 3491,
      "60cm": 3492,
      "space": 3493,
      "fresh": 3494,
      "slurry": 3495,
      "pieces": 3496,
      ".)": 3497,
      "hrs": 3498,
      "scar": 3499,
      "raising": 3500,
      "ulture": 3501,
      "2024": 3502,
      "mainly": 3503,
      "falling": 3504,
      "thiram": 3505,
      "pulse": 3506,
      "anistamin": 3507,
      "decrease": 3508,
      "bajra": 3509,
      "andi": 3510,
      "lox": 3511,
      "tafgor": 3512,
      "mastilep": 3513,
      "lambda": 3514,
      "hac": 3515,
      "oliv": 3516,
      "resul": 3517,
      "lish": 3518,
      "sprink": 3519,
      "coli": 3520,
      "mantri": 3521,
      "right": 3522,
      "bitterness": 3523,
      "13kg": 3524,
      "affect": 3525,
      "bloom": 3526,
      "musk": 3527,
      "down": 3528,
      "machin": 3529,
      "symptoms": 3530,
      "benefici": 3531,
      "coordinator": 3532,
      "enquiry": 3533,
      "fil": 3534,
      "uproot": 3535,
      "gested": 3536,
      "areca": 3537,
      "rani": 3538,
      "mulching": 3539,
      "swine": 3540,
      "killer": 3541,
      "tificial": 3542,
      "%,": 3543,
      "kas": 3544,
      "wgl": 3545,
      "্র": 3546,
      "inta": 3547,
      "reason": 3548,
      "mes": 3549,
      "death": 3550,
      "debility": 3551,
      "bipul": 3552,
      "serve": 3553,
      "coragin": 3554,
      "succinic": 3555,
      "construction": 3556,
      "buffalo": 3557,
      "caf": 3558,
      "eas": 3559,
      "van": 3560,
      "yrs": 3561,
      "rosh": 3562,
      "feroliv": 3563,
      "lized": 3564,
      "10l": 3565,
      "trum": 3566,
      "spectrum": 3567,
      "seasons": 3568,
      "dissolved": 3569,
      "lakhimpur": 3570,
      "cashew": 3571,
      "pure": 3572,
      "stal": 3573,
      "artificial": 3574,
      "chan": 3575,
      "become": 3576,
      "000": 3577,
      "national": 3578,
      "large": 3579,
      "lentil": 3580,
      "samruddi": 3581,
      "whether": 3582,
      "anamika": 3583,
      "02": 3584,
      "got": 3585,
      "sugget": 3586,
      "amino": 3587,
      "24423": 3588,
      "gaon": 3589,
      "spoon": 3590,
      "natural": 3591,
      "ofos": 3592,
      "conse": 3593,
      "popul": 3594,
      "traps": 3595,
      "drought": 3596,
      "thorough": 3597,
      "spora": 3598,
      "bayer": 3599,
      "enquired": 3600,
      "poison": 3601,
      "kes": 3602,
      "wt": 3603,
      "conf": 3604,
      "50gram": 3605,
      "phosphide": 3606,
      "corre": 3607,
      "telling": 3608,
      "agrominimax": 3609,
      "43": 3610,
      "Cassava": 3611,
      "bon": 3612,
      "sird": 3613,
      "ush": 3614,
      "quat": 3615,
      "bore": 3616,
      "approx": 3617,
      "cumin": 3618,
      "atrazine": 3619,
      "mad": 3620,
      "nath": 3621,
      "tious": 3622,
      "asses": 3623,
      "ably": 3624,
      "phor": 3625,
      "carbo": 3626,
      "ganga": 3627,
      "optim": 3628,
      "proclaim": 3629,
      "quinol": 3630,
      "optimum": 3631,
      "hem": 3632,
      "ub": 3633,
      "fort": 3634,
      "few": 3635,
      "pmkisan": 3636,
      "streptomycine": 3637,
      "germinate": 3638,
      "separately": 3639,
      "fertilization": 3640,
      "pineapple": 3641,
      "consecu": 3642,
      "86": 3643,
      "ah": 3644,
      "fent": 3645,
      "ption": 3646,
      "wari": 3647,
      "zin": 3648,
      "logical": 3649,
      "topical": 3650,
      "kness": 3651,
      "piller": 3652,
      "produce": 3653,
      "basis": 3654,
      "horticultural": 3655,
      "since": 3656,
      "profenofos": 3657,
      "cream": 3658,
      "4g": 3659,
      "ever": 3660,
      "hr": 3661,
      "ibd": 3662,
      "nav": 3663,
      "operation": 3664,
      "tell": 3665,
      "upl": 3666,
      "rece": 3667,
      "raised": 3668,
      "apar": 3669,
      "doctor": 3670,
      "gent": 3671,
      "toxim": 3672,
      "support": 3673,
      "website": 3674,
      "panacur": 3675,
      "consecutive": 3676,
      "39": 3677,
      "hen": 3678,
      "nas": 3679,
      "smo": 3680,
      "mao": 3681,
      "mos": 3682,
      "types": 3683,
      "azad": 3684,
      "estab": 3685,
      "squash": 3686,
      "The": 3687,
      "fle": 3688,
      "iz": 3689,
      "dia": 3690,
      "maan": 3691,
      "so4": 3692,
      "bid": 3693,
      "ney": 3694,
      "hairy": 3695,
      "caldan": 3696,
      "splitting": 3697,
      "finan": 3698,
      "bis": 3699,
      "dic": 3700,
      "den": 3701,
      "eli": 3702,
      "ive": 3703,
      "led": 3704,
      "rearing": 3705,
      "insemin": 3706,
      "alika": 3707,
      "sandy": 3708,
      "eleph": 3709,
      "registered": 3710,
      "wards": 3711,
      "56": 3712,
      "cil": 3713,
      "qnt": 3714,
      "ero": 3715,
      "coun": 3716,
      "comb": 3717,
      "ghy": 3718,
      "iron": 3719,
      "kept": 3720,
      "species": 3721,
      "quintle": 3722,
      "shedding": 3723,
      "inducing": 3724,
      "quinolphos": 3725,
      "ai": 3726,
      "ior": 3727,
      "udy": 3728,
      "peta": 3729,
      "2020": 3730,
      "oney": 3731,
      "naa": 3732,
      "naram": 3733,
      "lamen": 3734,
      "mukta": 3735,
      "bucket": 3736,
      "elephant": 3737,
      "5l": 3738,
      "ao": 3739,
      "cir": 3740,
      "run": 3741,
      "cough": 3742,
      "concer": 3743,
      "percent": 3744,
      "ghat": 3745,
      "problems": 3746,
      "decomposer": 3747,
      "pottassium": 3748,
      "honey": 3749,
      "ject": 3750,
      "south": 3751,
      "nuts": 3752,
      "whiteflies": 3753,
      "thio": 3754,
      "anigest": 3755,
      "kunnaram": 3756,
      "molasses": 3757,
      "lecanii": 3758,
      "financial": 3759,
      "gation": 3760,
      "nam": 3761,
      "nata": 3762,
      "ophos": 3763,
      "िस": 3764,
      "ina": 3765,
      "appear": 3766,
      "bighas": 3767,
      "yclo": 3768,
      "acetic": 3769,
      "enrox": 3770,
      "sagor": 3771,
      "lameness": 3772,
      "bara": 3773,
      "efly": 3774,
      "ju": 3775,
      "15th": 3776,
      "bottlegourd": 3777,
      "nationa": 3778,
      "gape": 3779,
      "briefly": 3780,
      "stress": 3781,
      "complete": 3782,
      "holding": 3783,
      "sagorika": 3784,
      "gas": 3785,
      "step": 3786,
      "arika": 3787,
      "mintic": 3788,
      "aryl": 3789,
      "press": 3790,
      "drops": 3791,
      "droping": 3792,
      "micronu": 3793,
      "vij": 3794,
      "azoxystrobin": 3795,
      "yields": 3796,
      "anthal": 3797,
      "floor": 3798,
      "ducklings": 3799,
      "drained": 3800,
      "husband": 3801,
      "enhance": 3802,
      "phytoph": 3803,
      "220": 3804,
      "csc": 3805,
      "gum": 3806,
      "jw": 3807,
      "mill": 3808,
      "inate": 3809,
      "cospora": 3810,
      "adult": 3811,
      "without": 3812,
      "pol": 3813,
      "neuro": 3814,
      "30cm": 3815,
      "harvested": 3816,
      "pletion": 3817,
      "phosphor": 3818,
      "338": 3819,
      "morta": 3820,
      "****": 3821,
      "inches": 3822,
      "meet": 3823,
      "biof": 3824,
      "ridgegourd": 3825,
      "helps": 3826,
      "carbaryl": 3827,
      "earthing": 3828,
      "manually": 3829,
      "twigs": 3830,
      "azadir": 3831,
      "nataka": 3832,
      ".@": 3833,
      "445": 3834,
      "69": 3835,
      "mn": 3836,
      "r2": 3837,
      "sm": 3838,
      "ates": 3839,
      "spring": 3840,
      "formal": 3841,
      "karnataka": 3842,
      "north": 3843,
      "profenophos": 3844,
      "dragon": 3845,
      "hemp": 3846,
      "1l": 3847,
      "6th": 3848,
      "7kg": 3849,
      "aer": 3850,
      "pling": 3851,
      "indian": 3852,
      "hyder": 3853,
      "inflo": 3854,
      "piggery": 3855,
      "fenpy": 3856,
      "group": 3857,
      "mission": 3858,
      "nationalized": 3859,
      "%+": 3860,
      "hab": 3861,
      "sid": 3862,
      "vate": 3863,
      "ার": 3864,
      "issue": 3865,
      "ripen": 3866,
      "elling": 3867,
      "vein": 3868,
      "fruitfly": 3869,
      "fungus": 3870,
      "400ml": 3871,
      "viz": 3872,
      "vipul": 3873,
      "corn": 3874,
      "dipping": 3875,
      "jalak": 3876,
      "----------------": 3877,
      "aadhar": 3878,
      "phorate": 3879,
      "235": 3880,
      "99": 3881,
      "ev": 3882,
      "hach": 3883,
      "kan": 3884,
      "kind": 3885,
      "ender": 3886,
      "ferment": 3887,
      "200gm": 3888,
      "gourds": 3889,
      "shak": 3890,
      "fingermillet": 3891,
      "bahad": 3892,
      "dieback": 3893,
      "bbbbbbbb": 3894,
      "mortality": 3895,
      "azadirhach": 3896,
      "azadirhachtin": 3897,
      "03": 3898,
      "88": 3899,
      "mun": 3900,
      "qt": 3901,
      "rape": 3902,
      "manuring": 3903,
      "because": 3904,
      "mail": 3905,
      "peps": 3906,
      "20gm": 3907,
      "mono": 3908,
      "fox": 3909,
      "iff": 3910,
      "button": 3911,
      "ficient": 3912,
      "r2b": 3913,
      "bahadur": 3914,
      "psu": 3915,
      "adine": 3916,
      "105": 3917,
      "present": 3918,
      "feeds": 3919,
      "magic": 3920,
      "controlled": 3921,
      "wettable": 3922,
      "pearl": 3923,
      "sulfuron": 3924,
      "jalakia": 3925,
      "040": 3926,
      "bath": 3927,
      "ctiv": 3928,
      "m45": 3929,
      "inte": 3930,
      "apyr": 3931,
      "ents": 3932,
      "igaon": 3933,
      "60g": 3934,
      "17kg": 3935,
      "15048": 3936,
      "fingerling": 3937,
      "cercospora": 3938,
      "sucker": 3939,
      "chandan": 3940,
      "respir": 3941,
      "5gram": 3942,
      "71": 3943,
      "indo": 3944,
      "inside": 3945,
      "load": 3946,
      "rooting": 3947,
      "rootex": 3948,
      "500ml": 3949,
      "bacteria": 3950,
      "direction": 3951,
      "250ml": 3952,
      "33kg": 3953,
      "purch": 3954,
      "corpor": 3955,
      "quail": 3956,
      "750g": 3957,
      "roshan": 3958,
      "thoroughly": 3959,
      "husbandry": 3960,
      "pepsid": 3961,
      "62": 3962,
      "cri": 3963,
      "cture": 3964,
      "jam": 3965,
      "rof": 3966,
      "abor": 3967,
      "sop": 3968,
      "atha": 3969,
      "rang": 3970,
      "aching": 3971,
      "methods": 3972,
      "80g": 3973,
      "pyriprox": 3974,
      "cloudy": 3975,
      "tubers": 3976,
      "spawn": 3977,
      "release": 3978,
      "charge": 3979,
      "phosphorus": 3980,
      "275": 3981,
      "bad": 3982,
      "mahy": 3983,
      "strous": 3984,
      "setting": 3985,
      "regular": 3986,
      "rescence": 3987,
      "diamond": 3988,
      "hyderabad": 3989,
      "iffco": 3990,
      "kot": 3991,
      "kash": 3992,
      "edo": 3993,
      "lita": 3994,
      "actara": 3995,
      "mangal": 3996,
      "prom": 3997,
      "assistant": 3998,
      "tonne": 3999,
      "teak": 4000,
      "pkt": 4001,
      "topdressing": 4002,
      "composite": 4003,
      "extension": 4004,
      "pods": 4005,
      "labor": 4006,
      "fluorescens": 4007,
      "climat": 4008,
      "phytophthora": 4009,
      "ific": 4010,
      "mess": 4011,
      "enta": 4012,
      "perfor": 4013,
      "urine": 4014,
      "mini": 4015,
      "brof": 4016,
      "kara": 4017,
      "kalita": 4018,
      "guard": 4019,
      "butyl": 4020,
      "pulses": 4021,
      "recovery": 4022,
      "regularly": 4023,
      "donot": 4024,
      "innermost": 4025,
      "tank": 4026,
      "corporation": 4027,
      "ian": 4028,
      "snow": 4029,
      "who": 4030,
      "rec": 4031,
      "little": 4032,
      "acin": 4033,
      "gola": 4034,
      "fertil": 4035,
      "petha": 4036,
      "ets": 4037,
      "intercrop": 4038,
      "cular": 4039,
      "bles": 4040,
      "laying": 4041,
      "mandika": 4042,
      "bunches": 4043,
      "predator": 4044,
      "incorporate": 4045,
      ".(": 4046,
      "ked": 4047,
      "lact": 4048,
      "nad": 4049,
      "nir": 4050,
      "र्": 4051,
      "rex": 4052,
      "respon": 4053,
      "cept": 4054,
      "pox": 4055,
      "incidence": 4056,
      "magur": 4057,
      "bait": 4058,
      "resistance": 4059,
      "sagarika": 4060,
      "establish": 4061,
      "respiratory": 4062,
      "message": 4063,
      "84": 4064,
      "995": 4065,
      "cell": 4066,
      "fby": 4067,
      "nur": 4068,
      "ugre": 4069,
      "hosp": 4070,
      "25g": 4071,
      "premi": 4072,
      "haar": 4073,
      "bhani": 4074,
      "35ec": 4075,
      "vegetative": 4076,
      "palak": 4077,
      "phospho": 4078,
      "ethrel": 4079,
      "hoppers": 4080,
      "streak": 4081,
      "//": 4082,
      "fr": 4083,
      "pil": 4084,
      "प्र": 4085,
      "thion": 4086,
      "geno": 4087,
      "coprim": 4088,
      "commer": 4089,
      "chillis": 4090,
      "dhar": 4091,
      "matter": 4092,
      "submit": 4093,
      "pradhan": 4094,
      "servation": 4095,
      "paraquat": 4096,
      "mililiter": 4097,
      "results": 4098,
      "beneficiary": 4099,
      "suggetsed": 4100,
      "1gram": 4101,
      "bari": 4102,
      "mation": 4103,
      "sof": 4104,
      "win": 4105,
      "liq": 4106,
      "watering": 4107,
      "des": 4108,
      "bugs": 4109,
      "fenugre": 4110,
      "soaked": 4111,
      "grafting": 4112,
      "climatic": 4113,
      "%.": 4114,
      "ood": 4115,
      "pgr": 4116,
      "zide": 4117,
      "tip": 4118,
      "bout": 4119,
      "loca": 4120,
      "weak": 4121,
      "carps": 4122,
      "hea": 4123,
      "hara": 4124,
      "occur": 4125,
      "cyhal": 4126,
      "barpeta": 4127,
      "downey": 4128,
      "contains": 4129,
      "structure": 4130,
      "rexia": 4131,
      "330": 4132,
      "525": 4133,
      "frequ": 4134,
      "naph": 4135,
      "oe": 4136,
      "og": 4137,
      "wdiv": 4138,
      "ertilizer": 4139,
      "lite": 4140,
      "eng": 4141,
      "formly": 4142,
      "mental": 4143,
      "proof": 4144,
      "peti": 4145,
      "intercropping": 4146,
      "12338": 4147,
      "sulcoprim": 4148,
      "zole": 4149,
      "infested": 4150,
      "central": 4151,
      "1638": 4152,
      "rush": 4153,
      "ensure": 4154,
      "rats": 4155,
      "cloth": 4156,
      "released": 4157,
      "tricyclazole": 4158,
      "population": 4159,
      "inflorescence": 4160,
      "fenugreek": 4161,
      "cyhalofop": 4162,
      "bra": 4163,
      "ifer": 4164,
      "redi": 4165,
      "ragor": 4166,
      "ices": 4167,
      "fortious": 4168,
      "grape": 4169,
      "disp": 4170,
      "1010": 4171,
      "rural": 4172,
      "100kg": 4173,
      "selected": 4174,
      "uniformly": 4175,
      "lanili": 4176,
      "decompose": 4177,
      "insemination": 4178,
      "broflanili": 4179,
      "commercial": 4180,
      "anil": 4181,
      "suf": 4182,
      "mam": 4183,
      "fertigation": 4184,
      "premature": 4185,
      "kisa": 4186,
      "300g": 4187,
      "directly": 4188,
      "maggot": 4189,
      "glass": 4190,
      "sandal": 4191,
      "penox": 4192,
      "rhizomes": 4193,
      "eggs": 4194,
      "molases": 4195,
      "0112338": 4196,
      "0361": 4197,
      "anthalmintic": 4198,
      "hospital": 4199,
      "53": 4200,
      "bion": 4201,
      "bab": 4202,
      "sd": 4203,
      "ino": 4204,
      "speed": 4205,
      "chel": 4206,
      "digging": 4207,
      "askin": 4208,
      "150g": 4209,
      "11kg": 4210,
      "clear": 4211,
      "covering": 4212,
      "techni": 4213,
      "observe": 4214,
      "thalene": 4215,
      "golaghat": 4216,
      "135": 4217,
      "ame": 4218,
      "eus": 4219,
      "ng": 4220,
      "scal": 4221,
      "retain": 4222,
      "coat": 4223,
      "cold": 4224,
      "acy": 4225,
      "chen": 4226,
      "anaa": 4227,
      "buy": 4228,
      "nihat": 4229,
      "gunny": 4230,
      "prune": 4231,
      "obtain": 4232,
      "preferably": 4233,
      "entire": 4234,
      "fortnight": 4235,
      "44574": 4236,
      "reach": 4237,
      "person": 4238,
      "itpur": 4239,
      "rido": 4240,
      "managem": 4241,
      "racter": 4242,
      "brg": 4243,
      "sulam": 4244,
      "cust": 4245,
      "plantomycine": 4246,
      "beetles": 4247,
      "karim": 4248,
      "starts": 4249,
      "quito": 4250,
      "character": 4251,
      "adopt": 4252,
      "immediate": 4253,
      "9435044574": 4254,
      "nuvan": 4255,
      "propagation": 4256,
      "mosquito": 4257,
      "It": 4258,
      "ead": 4259,
      "flor": 4260,
      "glu": 4261,
      "pping": 4262,
      "zy": 4263,
      "ans": 4264,
      "thy": 4265,
      "color": 4266,
      "bifen": 4267,
      "facing": 4268,
      "broadcasting": 4269,
      "intamox": 4270,
      "formalin": 4271,
      "integr": 4272,
      "penoxsulam": 4273,
      "bifenthrin": 4274,
      "%(": 4275,
      "280": 4276,
      "hri": 4277,
      "kat": 4278,
      "wad": 4279,
      "किस": 4280,
      "endo": 4281,
      "uter": 4282,
      "esh": 4283,
      "proli": 4284,
      "chillie": 4285,
      "pmfby": 4286,
      "vision": 4287,
      "750gm": 4288,
      "centi": 4289,
      "strawberry": 4290,
      "coragen": 4291,
      "sonitpur": 4292,
      "deptt": 4293,
      "village": 4294,
      "describe": 4295,
      "viride": 4296,
      "rapeseed": 4297,
      "mahyco": 4298,
      "NA": 4299,
      "fix": 4300,
      "hill": 4301,
      "sona": 4302,
      "लि": 4303,
      "life": 4304,
      "cons": 4305,
      "complain": 4306,
      "2000": 4307,
      "phero": 4308,
      "2500": 4309,
      "previ": 4310,
      "40kg": 4311,
      "heifer": 4312,
      "ustaad": 4313,
      "osad": 4314,
      "jolo": 4315,
      "benefits": 4316,
      "spinosad": 4317,
      "sawani": 4318,
      "megha": 4319,
      "kulam": 4320,
      "vlew": 4321,
      "scaring": 4322,
      "naphthalene": 4323,
      "oth": 4324,
      "reply": 4325,
      "edta": 4326,
      "ency": 4327,
      "una": 4328,
      "ativ": 4329,
      "sannal": 4330,
      "filling": 4331,
      "induce": 4332,
      "sulfate": 4333,
      "ripening": 4334,
      "sufficient": 4335,
      "sannalu": 4336,
      "047": 4337,
      "87": 4338,
      "kum": 4339,
      "rer": 4340,
      "today": 4341,
      "str": 4342,
      "ars": 4343,
      "sease": 4344,
      "iso": 4345,
      "abt": 4346,
      "bisp": 4347,
      "tam": 4348,
      "bits": 4349,
      "azol": 4350,
      "unted": 4351,
      "instead": 4352,
      "gae": 4353,
      "swar": 4354,
      "effected": 4355,
      "toxicity": 4356,
      "jwala": 4357,
      "psuedo": 4358,
      "locality": 4359,
      "kisaan": 4360,
      "450": 4361,
      "733": 4362,
      "clim": 4363,
      "dda": 4364,
      "orch": 4365,
      "adding": 4366,
      "essen": 4367,
      "imaz": 4368,
      "som": 4369,
      "advis": 4370,
      "preca": 4371,
      "stems": 4372,
      "broc": 4373,
      "standard": 4374,
      "important": 4375,
      "foxtail": 4376,
      "integrated": 4377,
      "essential": 4378,
      "79": 4379,
      "onate": 4380,
      "rout": 4381,
      "stunted": 4382,
      "asi": 4383,
      "addition": 4384,
      "itrient": 4385,
      "pet": 4386,
      "nutre": 4387,
      "applic": 4388,
      "ricket": 4389,
      "blb": 4390,
      "inci": 4391,
      "150gm": 4392,
      "250gm": 4393,
      "private": 4394,
      "ndra": 4395,
      "much": 4396,
      "1lit": 4397,
      "ctive": 4398,
      "dor": 4399,
      "fy": 4400,
      "wer": 4401,
      "দি": 4402,
      "apex": 4403,
      "lea": 4404,
      "def": 4405,
      "del": 4406,
      "afanil": 4407,
      "master": 4408,
      "2019": 4409,
      "avo": 4410,
      "wea": 4411,
      "15cm": 4412,
      "dhu": 4413,
      "offed": 4414,
      "kissan": 4415,
      "sample": 4416,
      "send": 4417,
      "febra": 4418,
      "yellowish": 4419,
      "sunlight": 4420,
      "fully": 4421,
      "norflox": 4422,
      "diarrhea": 4423,
      "jagity": 4424,
      "link": 4425,
      "tolfenpy": 4426,
      "jolokia": 4427,
      "bispyri": 4428,
      "07": 4429,
      "850": 4430,
      "cr": 4431,
      "ip": 4432,
      "jana": 4433,
      "anath": 4434,
      "ancy": 4435,
      "rab": 4436,
      "seper": 4437,
      "prote": 4438,
      "project": 4439,
      "mother": 4440,
      "ussd": 4441,
      "raddish": 4442,
      "raja": 4443,
      "removed": 4444,
      "naga": 4445,
      "adama": 4446,
      "bunchy": 4447,
      "recommandation": 4448,
      "separate": 4449,
      "safflower": 4450,
      "looper": 4451,
      "manganate": 4452,
      "caflon": 4453,
      "ridomill": 4454,
      "pheromone": 4455,
      "precaution": 4456,
      "broccoli": 4457,
      "bber": 4458,
      "era": 4459,
      "online": 4460,
      "thris": 4461,
      "plu": 4462,
      "already": 4463,
      "cour": 4464,
      "adequ": 4465,
      "agent": 4466,
      "unit": 4467,
      "boil": 4468,
      "interest": 4469,
      "bleaching": 4470,
      "cucur": 4471,
      "update": 4472,
      "acef": 4473,
      "slr": 4474,
      "prasad": 4475,
      "shire": 4476,
      "khaki": 4477,
      "custard": 4478,
      "tolfenpyrad": 4479,
      "protein": 4480,
      "bg": 4481,
      "igh": 4482,
      "kit": 4483,
      "usu": 4484,
      "ye": 4485,
      "yte": 4486,
      "zn": 4487,
      "app": 4488,
      "apu": 4489,
      "desi": 4490,
      "dim": 4491,
      "extra": 4492,
      "blon": 4493,
      "gree": 4494,
      "chisel": 4495,
      "sitic": 4496,
      "aram": 4497,
      "packet": 4498,
      "improving": 4499,
      "sagar": 4500,
      "nalbari": 4501,
      "square": 4502,
      "pink": 4503,
      "fentas": 4504,
      "purchase": 4505,
      "laboratory": 4506,
      "किसान": 4507,
      "/-": 4508,
      "cricket": 4509,
      "hard": 4510,
      "jap": 4511,
      "ws": 4512,
      "zium": 4513,
      "metar": 4514,
      "pline": 4515,
      "als": 4516,
      "algae": 4517,
      "icam": 4518,
      "ured": 4519,
      "contribution": 4520,
      "gestation": 4521,
      "aria": 4522,
      "febu": 4523,
      "known": 4524,
      "portal": 4525,
      "increases": 4526,
      "resid": 4527,
      "barazide": 4528,
      "jamun": 4529,
      "atively": 4530,
      "bispyribac": 4531,
      "febuary": 4532,
      "225": 4533,
      "dal": 4534,
      "eu": 4535,
      "kad": 4536,
      "pant": 4537,
      "rh": 4538,
      "sme": 4539,
      "धि": 4540,
      "coal": 4541,
      "iculture": 4542,
      "mano": 4543,
      "grapes": 4544,
      "bivet": 4545,
      "himax": 4546,
      "agrom": 4547,
      "amr": 4548,
      "200ml": 4549,
      "neblon": 4550,
      "500gm": 4551,
      "swelling": 4552,
      "helpline": 4553,
      "self": 4554,
      "combination": 4555,
      "promot": 4556,
      "dharwad": 4557,
      "3m": 4558,
      "hir": 4559,
      "pid": 4560,
      "vary": 4561,
      "za": 4562,
      "index": 4563,
      "algal": 4564,
      "deal": 4565,
      "moder": 4566,
      "housing": 4567,
      "oder": 4568,
      "phose": 4569,
      "cub": 4570,
      "soluble": 4571,
      "bottom": 4572,
      "tribivet": 4573,
      "varri": 4574,
      "takes": 4575,
      "darrang": 4576,
      "confid": 4577,
      "thrissur": 4578,
      "bat": 4579,
      "bph": 4580,
      "dle": 4581,
      "far": 4582,
      "slow": 4583,
      "में": 4584,
      "razo": 4585,
      "rars": 4586,
      "tock": 4587,
      "gibber": 4588,
      "photo": 4589,
      "cyantraniliprole": 4590,
      "pillar": 4591,
      "ltd": 4592,
      "label": 4593,
      "yojna": 4594,
      "volu": 4595,
      "activities": 4596,
      "21078": 4597,
      "smooth": 4598,
      "qtl": 4599,
      "kumar": 4600,
      "212": 4601,
      "76": 4602,
      "mati": 4603,
      "uta": 4604,
      "deter": 4605,
      "agen": 4606,
      "until": 4607,
      "home": 4608,
      "ruby": 4609,
      "arming": 4610,
      "35kg": 4611,
      "specially": 4612,
      "rajendran": 4613,
      "shoots": 4614,
      "bloat": 4615,
      "yojona": 4616,
      "320ml": 4617,
      "elec": 4618,
      "0487": 4619,
      "confidor": 4620,
      "3gram": 4621,
      "8m": 4622,
      "aqu": 4623,
      "bund": 4624,
      "bite": 4625,
      "kur": 4626,
      "ost": 4627,
      "rendra": 4628,
      "onset": 4629,
      "raise": 4630,
      "melox": 4631,
      "ges": 4632,
      "permanganate": 4633,
      "going": 4634,
      "major": 4635,
      "minor": 4636,
      "iller": 4637,
      "intacef": 4638,
      "fied": 4639,
      "corm": 4640,
      "highly": 4641,
      "kernal": 4642,
      "micronuitrient": 4643,
      "shakti": 4644,
      "fertilzer": 4645,
      "frequent": 4646,
      "dhubri": 4647,
      "asp": 4648,
      "bil": 4649,
      "dich": 4650,
      "mash": 4651,
      "zed": 4652,
      "से": 4653,
      "regent": 4654,
      "rehri": 4655,
      "meat": 4656,
      "arandi": 4657,
      "degree": 4658,
      "diag": 4659,
      "imb": 4660,
      "sapling": 4661,
      "phall": 4662,
      "giving": 4663,
      "rains": 4664,
      "aksed": 4665,
      "flux": 4666,
      "297": 4667,
      "knolkhol": 4668,
      "mohaf": 4669,
      "spiro": 4670,
      "rendi": 4671,
      "concentration": 4672,
      "apart": 4673,
      "biofertilizer": 4674,
      "broflanilide": 4675,
      "weakness": 4676,
      "volume": 4677,
      "425": 4678,
      "dot": 4679,
      "katha": 4680,
      "oli": 4681,
      "inap": 4682,
      "annu": 4683,
      "onic": 4684,
      "stir": 4685,
      "bium": 4686,
      "mirac": 4687,
      "19kg": 4688,
      "tono": 4689,
      "hyd": 4690,
      "weekly": 4691,
      "break": 4692,
      "lesion": 4693,
      "subst": 4694,
      "disorder": 4695,
      "official": 4696,
      "swarming": 4697,
      "developed": 4698,
      "improvement": 4699,
      ":-(": 4700,
      "miligram": 4701,
      "passion": 4702,
      "butanil": 4703,
      "zineb": 4704,
      "bollworm": 4705,
      "previous": 4706,
      "omite": 4707,
      "pain": 4708,
      "xi": 4709,
      "की": 4710,
      "sey": 4711,
      "conven": 4712,
      "beu": 4713,
      "arise": 4714,
      "infect": 4715,
      "barsoap": 4716,
      "provides": 4717,
      "iihr": 4718,
      "catterpiller": 4719,
      "machinery": 4720,
      "responded": 4721,
      "leave": 4722,
      "febraury": 4723,
      "rajendranagar": 4724,
      "ient": 4725,
      "oor": 4726,
      "tt": 4727,
      "were": 4728,
      "sprout": 4729,
      "acar": 4730,
      "ried": 4731,
      "101": 4732,
      "dhema": 4733,
      "rotten": 4734,
      "capsu": 4735,
      "butter": 4736,
      "gali": 4737,
      "processing": 4738,
      "kotha": 4739,
      "corabon": 4740,
      "dhirendra": 4741,
      "earthworm": 4742,
      "spiromes": 4743,
      "-(": 4744,
      "57": 4745,
      "dc": 4746,
      "jda": 4747,
      "kand": 4748,
      "np": 4749,
      "nati": 4750,
      "saff": 4751,
      "limit": 4752,
      "spind": 4753,
      "alofop": 4754,
      "sprayer": 4755,
      "phophall": 4756,
      "sha": 4757,
      "?????????": 4758,
      "topdress": 4759,
      "rding": 4760,
      "ellent": 4761,
      "ators": 4762,
      "middle": 4763,
      "rhizobium": 4764,
      "sulfan": 4765,
      "bhoot": 4766,
      "quizalofop": 4767,
      "correction": 4768,
      "chelated": 4769,
      "dhemaji": 4770,
      "phophallus": 4771,
      "Yes": 4772,
      "kol": 4773,
      "rion": 4774,
      "sach": 4775,
      "sses": 4776,
      "প্র": 4777,
      "rent": 4778,
      "gel": 4779,
      "asagar": 4780,
      "sues": 4781,
      "ecto": 4782,
      "oty": 4783,
      "except": 4784,
      "potting": 4785,
      "mint": 4786,
      "40gm": 4787,
      "inflam": 4788,
      "basf": 4789,
      "steroid": 4790,
      "priya": 4791,
      "certific": 4792,
      "chloro": 4793,
      "grains": 4794,
      "parasitic": 4795,
      "newly": 4796,
      "basins": 4797,
      "viridi": 4798,
      "importance": 4799,
      "sky": 4800,
      "snowball": 4801,
      "nativo": 4802,
      "49": 4803,
      "dat": 4804,
      "fal": 4805,
      "gite": 4806,
      "oconazole": 4807,
      "p2o": 4808,
      "rc": 4809,
      "vell": 4810,
      "toram": 4811,
      "stub": 4812,
      "could": 4813,
      "litrs": 4814,
      "confir": 4815,
      "controls": 4816,
      "mosis": 4817,
      "hogen": 4818,
      "ami": 4819,
      "detailed": 4820,
      "betadine": 4821,
      "vitamine": 4822,
      "princi": 4823,
      "started": 4824,
      "spinetoram": 4825,
      "products": 4826,
      "lines": 4827,
      "18047": 4828,
      "sprinkle": 4829,
      "-------------------": 4830,
      "miracle": 4831,
      "sq": 4832,
      "rogo": 4833,
      "aprim": 4834,
      "uted": 4835,
      "sukia": 4836,
      "delay": 4837,
      "ries": 4838,
      "recomm": 4839,
      "begin": 4840,
      "ractin": 4841,
      "feature": 4842,
      "rotation": 4843,
      "shap": 4844,
      "rounding": 4845,
      "ending": 4846,
      "hybrids": 4847,
      "furrows": 4848,
      "283": 4849,
      "tras": 4850,
      "dipped": 4851,
      "setts": 4852,
      "emergent": 4853,
      "555": 4854,
      "aadhaar": 4855,
      "machine": 4856,
      "kmph": 4857,
      "difenoconazole": 4858,
      "bhog": 4859,
      "habit": 4860,
      "technique": 4861,
      "adequate": 4862,
      "spindle": 4863,
      ",,": 4864,
      "54": 4865,
      "dk": 4866,
      "flow": 4867,
      "han": 4868,
      "lack": 4869,
      "nab": 4870,
      "vial": 4871,
      "enter": 4872,
      "maha": 4873,
      "50ml": 4874,
      "quar": 4875,
      "amma": 4876,
      "lock": 4877,
      "atoka": 4878,
      "saj": 4879,
      "shar": 4880,
      "availi": 4881,
      "cutworm": 4882,
      "pitance": 4883,
      "broiller": 4884,
      "thiod": 4885,
      "subsid": 4886,
      "237": 4887,
      "abou": 4888,
      "cipro": 4889,
      "chandra": 4890,
      "prevention": 4891,
      "completely": 4892,
      "neomec": 4893,
      "accordingly": 4894,
      "crystal": 4895,
      "carboxin": 4896,
      "toximer": 4897,
      "oderma": 4898,
      "p2o5": 4899,
      "82": 4900,
      "df": 4901,
      "guri": 4902,
      "kor": 4903,
      "mycine": 4904,
      "incub": 4905,
      "anjan": 4906,
      "ory": 4907,
      "ense": 4908,
      "added": 4909,
      "formed": 4910,
      "ley": 4911,
      "defoli": 4912,
      "agement": 4913,
      "bell": 4914,
      "extern": 4915,
      "shop": 4916,
      "40ec": 4917,
      "cms": 4918,
      "marco": 4919,
      "ways": 4920,
      "jackpot": 4921,
      "tinsukia": 4922,
      "intalyte": 4923,
      "parasite": 4924,
      "maintaining": 4925,
      "systemic": 4926,
      "anese": 4927,
      "snail": 4928,
      "dark": 4929,
      "aloe": 4930,
      "timing": 4931,
      "easy": 4932,
      "vijay": 4933,
      "acyhalothrin": 4934,
      "nutreint": 4935,
      "jagityal": 4936,
      "amruta": 4937,
      "electric": 4938,
      "beuveria": 4939,
      "principal": 4940,
      "550": 4941,
      "num": 4942,
      "sat": 4943,
      "sbi": 4944,
      "anjana": 4945,
      "lis": 4946,
      "seen": 4947,
      "contro": 4948,
      "45kg": 4949,
      "wild": 4950,
      "400g": 4951,
      "300ml": 4952,
      "khet": 4953,
      "catla": 4954,
      "anorexia": 4955,
      "nagamruta": 4956,
      "factom": 4957,
      "synthe": 4958,
      "placenta": 4959,
      "easter": 4960,
      "attains": 4961,
      "sivasagar": 4962,
      "eligi": 4963,
      "prolific": 4964,
      "features": 4965,
      "59": 4966,
      "our": 4967,
      "ww": 4968,
      "ना": 4969,
      "ofol": 4970,
      "lication": 4971,
      "too": 4972,
      "spp": 4973,
      "andra": 4974,
      "enough": 4975,
      "sugested": 4976,
      "big": 4977,
      "expo": 4978,
      "bring": 4979,
      "shmi": 4980,
      "preservation": 4981,
      "distribution": 4982,
      "gets": 4983,
      "partur": 4984,
      "microf": 4985,
      "ends": 4986,
      "nurseries": 4987,
      "163": 4988,
      "ramukhi": 4989,
      "increased": 4990,
      "ensary": 4991,
      "fluid": 4992,
      "throughout": 4993,
      "surrounding": 4994,
      "viron": 4995,
      "medicinal": 4996,
      "pregnancy": 4997,
      "divide": 4998,
      "vectors": 4999,
      "operations": 5000,
      "lactating": 5001,
      "pilar": 5002,
      "japanese": 5003,
      "subsidised": 5004,
      "hari": 5005,
      "vien": 5006,
      "wat": 5007,
      "zyl": 5008,
      "anide": 5009,
      "plag": 5010,
      "coo": 5011,
      "cop": 5012,
      "environ": 5013,
      "suri": 5014,
      "chine": 5015,
      "propar": 5016,
      "1092": 5017,
      "loss": 5018,
      "rowing": 5019,
      "keef": 5020,
      "kali": 5021,
      "himani": 5022,
      "stoc": 5023,
      "phosphonate": 5024,
      "11118": 5025,
      "priate": 5026,
      "develo": 5027,
      "penicle": 5028,
      "uniform": 5029,
      "reduces": 5030,
      "lambd": 5031,
      "pruned": 5032,
      "bull": 5033,
      "placed": 5034,
      "celphos": 5035,
      "fluorescence": 5036,
      "ctivity": 5037,
      "pyriproxifen": 5038,
      "soft": 5039,
      "propargite": 5040,
      "lambdacyhalothrin": 5041,
      "325": 5042,
      "7days": 5043,
      "875": 5044,
      "mur": 5045,
      "tida": 5046,
      "plug": 5047,
      "icid": 5048,
      "itation": 5049,
      "che": 5050,
      "uru": 5051,
      "antra": 5052,
      "mould": 5053,
      "204": 5054,
      "boar": 5055,
      "155": 5056,
      "noti": 5057,
      "anak": 5058,
      "gener": 5059,
      "productivity": 5060,
      "sigatoka": 5061,
      "initial": 5062,
      "metres": 5063,
      "flash": 5064,
      "tuberose": 5065,
      "chandramukhi": 5066,
      "sulfex": 5067,
      "piece": 5068,
      "difenth": 5069,
      "crossandra": 5070,
      "dicofol": 5071,
      "लिए": 5072,
      "dorman": 5073,
      "agromycin": 5074,
      "spiromesifen": 5075,
      "sachets": 5076,
      "trasfer": 5077,
      "4gm": 5078,
      "83": 5079,
      "8th": 5080,
      "aquiz": 5081,
      "pension": 5082,
      "reag": 5083,
      "alkal": 5084,
      "isol": 5085,
      "desease": 5086,
      "being": 5087,
      "umin": 5088,
      "20gram": 5089,
      "canker": 5090,
      "duaprim": 5091,
      "ganoderma": 5092,
      "produced": 5093,
      "psb": 5094,
      "cents": 5095,
      "sio": 5096,
      "bark": 5097,
      "gardens": 5098,
      "propaquiz": 5099,
      "appropriate": 5100,
      "hydrogen": 5101,
      "alternatively": 5102,
      "0836": 5103,
      "azadiractin": 5104,
      "aonla": 5105,
      "improves": 5106,
      "minerax": 5107,
      "allowed": 5108,
      "include": 5109,
      "shithal": 5110,
      "tamide": 5111,
      "perforated": 5112,
      "ametamide": 5113,
      "consider": 5114,
      "fluxametamide": 5115,
      "microfood": 5116,
      "plague": 5117,
      "difenthuron": 5118,
      "Wh": 5119,
      "rear": 5120,
      "tight": 5121,
      "achar": 5122,
      "abi": 5123,
      "wise": 5124,
      "aries": 5125,
      "30g": 5126,
      "30ml": 5127,
      "regard": 5128,
      "carried": 5129,
      "luit": 5130,
      "senior": 5131,
      "butachlor": 5132,
      "mahsuri": 5133,
      "discharge": 5134,
      "trifos": 5135,
      "frenchbean": 5136,
      "approval": 5137,
      "sheet": 5138,
      "husk": 5139,
      "attaining": 5140,
      "concerned": 5141,
      "smut": 5142,
      "fermented": 5143,
      "meloxicam": 5144,
      "519": 5145,
      "bush": 5146,
      "ious": 5147,
      "jer": 5148,
      "mac": 5149,
      "ua": 5150,
      "vid": 5151,
      "vol": 5152,
      "री": 5153,
      "erna": 5154,
      "anced": 5155,
      "mechan": 5156,
      "stim": 5157,
      "arthin": 5158,
      "tie": 5159,
      "sector": 5160,
      "ild": 5161,
      "ectop": 5162,
      "mai": 5163,
      "avan": 5164,
      "avac": 5165,
      "cement": 5166,
      "minist": 5167,
      "brand": 5168,
      "????.": 5169,
      "tracel2": 5170,
      "disinfect": 5171,
      "email": 5172,
      "trade": 5173,
      "hatch": 5174,
      "tablets": 5175,
      "burnihat": 5176,
      "reduced": 5177,
      "washing": 5178,
      "bullock": 5179,
      "spiked": 5180,
      "scale": 5181,
      "cucurbits": 5182,
      "inappitance": 5183,
      "availibility": 5184,
      "ernakulam": 5185,
      "stimul": 5186,
      "58": 5187,
      "When": 5188,
      "cyc": 5189,
      "fow": 5190,
      "odo": 5191,
      "uble": 5192,
      "কে": 5193,
      "invest": 5194,
      "route": 5195,
      "roller": 5196,
      "mod": 5197,
      "lobut": 5198,
      "bordo": 5199,
      "fetilizer": 5200,
      "kaj": 5201,
      "partial": 5202,
      "however": 5203,
      "22kg": 5204,
      "agrimycine": 5205,
      "loans": 5206,
      "ukamma": 5207,
      "compat": 5208,
      "bulrush": 5209,
      "9435066": 5210,
      "silver": 5211,
      "paclobut": 5212,
      "fame": 5213,
      "seperately": 5214,
      "stubbles": 5215,
      "chinese": 5216,
      "keefun": 5217,
      "avacado": 5218,
      "dd": 5219,
      "gul": 5220,
      "hit": 5221,
      "k2o": 5222,
      "vation": 5223,
      "via": 5224,
      "wall": 5225,
      "mea": 5226,
      "deat": 5227,
      "depletion": 5228,
      "imate": 5229,
      "unwanted": 5230,
      "usion": 5231,
      "causing": 5232,
      "cart": 5233,
      "tube": 5234,
      "attacked": 5235,
      "epil": 5236,
      "sticky": 5237,
      "sticker": 5238,
      "karbi": 5239,
      "sources": 5240,
      "recommendations": 5241,
      "lakh": 5242,
      "neded": 5243,
      "ekka": 5244,
      "nematodes": 5245,
      "concentrate": 5246,
      "climate": 5247,
      "recommneded": 5248,
      "ectopara": 5249,
      "260": 5250,
      "93": 5251,
      "acow": 5252,
      "bish": 5253,
      "bha": 5254,
      "gp": 5255,
      "nic": 5256,
      "ora": 5257,
      "pud": 5258,
      "uti": 5259,
      "या": 5260,
      "stra": 5261,
      "code": 5262,
      "apur": 5263,
      "ential": 5264,
      "chia": 5265,
      "dies": 5266,
      "ective": 5267,
      "abha": 5268,
      "seeded": 5269,
      "logging": 5270,
      "minim": 5271,
      "shill": 5272,
      "tons": 5273,
      "tonnes": 5274,
      "carry": 5275,
      "oxide": 5276,
      "topsoil": 5277,
      "request": 5278,
      "inten": 5279,
      "1750": 5280,
      "opy": 5281,
      "krh": 5282,
      "necro": 5283,
      "pullet": 5284,
      "sunhemp": 5285,
      "alternately": 5286,
      "weedicides": 5287,
      "kno3": 5288,
      "armyworm": 5289,
      "sites": 5290,
      "icarb": 5291,
      "incorporated": 5292,
      "crystoc": 5293,
      "ranikhet": 5294,
      "bathukamma": 5295,
      "usually": 5296,
      "thiodicarb": 5297,
      "antracol": 5298,
      "51969": 5299,
      "61": 5300,
      "This": 5301,
      "bpt": 5302,
      "cs": 5303,
      "ds": 5304,
      "gkvk": 5305,
      "ira": 5306,
      "angal": 5307,
      "seven": 5308,
      "soaking": 5309,
      "mode": 5310,
      "agi": 5311,
      "quent": 5312,
      "iding": 5313,
      "injury": 5314,
      "parti": 5315,
      "greengram": 5316,
      "cyst": 5317,
      "foliage": 5318,
      "queries": 5319,
      "blood": 5320,
      "anglong": 5321,
      "casting": 5322,
      "lives": 5323,
      "excessive": 5324,
      "They": 5325,
      "flexi": 5326,
      "course": 5327,
      "varriet": 5328,
      "dichlor": 5329,
      "RO": 5330,
      "bak": 5331,
      "harm": 5332,
      "ied": 5333,
      "mrig": 5334,
      "pel": 5335,
      "বে": 5336,
      "stag": 5337,
      "plot": 5338,
      "cool": 5339,
      "mention": 5340,
      "dop": 5341,
      "hoof": 5342,
      "fertile": 5343,
      "applicat": 5344,
      "weigh": 5345,
      "200lit": 5346,
      "potential": 5347,
      "identi": 5348,
      "borne": 5349,
      "gives": 5350,
      "dug": 5351,
      "hibis": 5352,
      "ridges": 5353,
      "work": 5354,
      "biological": 5355,
      "iodine": 5356,
      "depends": 5357,
      "effectively": 5358,
      "placing": 5359,
      "mahafol": 5360,
      "engine": 5361,
      "NARO": 5362,
      "kitchen": 5363,
      "factomphos": 5364,
      "shillong": 5365,
      "hibiscus": 5366,
      "037": 5367,
      "832": 5368,
      "By": 5369,
      "bhe": 5370,
      "ese": 5371,
      "especially": 5372,
      "ipt": 5373,
      "ore": 5374,
      "slight": 5375,
      "wd": 5376,
      "xacar": 5377,
      "zz": 5378,
      "zha": 5379,
      "सं": 5380,
      "ines": 5381,
      "recor": 5382,
      "onwards": 5383,
      "mela": 5384,
      "rob": 5385,
      "tik": 5386,
      "albo": 5387,
      "chet": 5388,
      "dead": 5389,
      "absor": 5390,
      "206": 5391,
      "lore": 5392,
      "mira": 5393,
      "potas": 5394,
      "borrer": 5395,
      "blot": 5396,
      "milking": 5397,
      "hizium": 5398,
      "occ": 5399,
      "paper": 5400,
      "direc": 5401,
      "tym": 5402,
      "chiili": 5403,
      "fallen": 5404,
      "mulch": 5405,
      "wasp": 5406,
      "slender": 5407,
      "prevail": 5408,
      "1250gm": 5409,
      "beekeeping": 5410,
      "rodent": 5411,
      "ointment": 5412,
      "percentage": 5413,
      "zyme": 5414,
      "0471": 5415,
      "dealer": 5416,
      "quarter": 5417,
      "mrigal": 5418,
      "xacarb": 5419,
      "245": 5420,
      "81": 5421,
      "cachar": 5422,
      "fail": 5423,
      "ilizer": 5424,
      "pray": 5425,
      "thre": 5426,
      "inga": 5427,
      "afop": 5428,
      "ferter": 5429,
      "advant": 5430,
      "103": 5431,
      "race": 5432,
      "cowd": 5433,
      "vera": 5434,
      "specific": 5435,
      "pkm": 5436,
      "calving": 5437,
      "copperoxychloride": 5438,
      "infest": 5439,
      "caterpilar": 5440,
      "powdered": 5441,
      "requires": 5442,
      "transplantation": 5443,
      "removing": 5444,
      "osis": 5445,
      "94353": 5446,
      "effects": 5447,
      "metro": 5448,
      "wrong": 5449,
      "receipt": 5450,
      "genous": 5451,
      "annual": 5452,
      "rione": 5453,
      "marcozyl": 5454,
      "electricity": 5455,
      "propaquizafop": 5456,
      "dopter": 5457,
      "bs": 5458,
      "cp": 5459,
      "fax": 5460,
      "jar": 5461,
      "sati": 5462,
      "won": 5463,
      "yur": 5464,
      "inity": 5465,
      "liam": 5466,
      "rohu": 5467,
      "seal": 5468,
      "lead": 5469,
      "desis": 5470,
      "completion": 5471,
      "dae": 5472,
      "dial": 5473,
      "timely": 5474,
      "key": 5475,
      "25ec": 5476,
      "minute": 5477,
      "fields": 5478,
      "kni": 5479,
      "achna": 5480,
      "aminos": 5481,
      "fingerlings": 5482,
      "bao": 5483,
      "warangal": 5484,
      "would": 5485,
      "prabhani": 5486,
      "mandal": 5487,
      "solar": 5488,
      "trenches": 5489,
      "nosis": 5490,
      "piglets": 5491,
      "94355": 5492,
      "करें": 5493,
      "seeking": 5494,
      "toximar": 5495,
      "concern": 5496,
      "aeration": 5497,
      "bbbbbbbbbbbbbbbb": 5498,
      "indoxacarb": 5499,
      "phosphorous": 5500,
      "glufos": 5501,
      "swarna": 5502,
      "epilachna": 5503,
      "625": 5504,
      "7th": 5505,
      "cav": 5506,
      "elect": 5507,
      "fro": 5508,
      "hence": 5509,
      "pact": 5510,
      "zam": 5511,
      "thir": 5512,
      "torate": 5513,
      "orna": 5514,
      "stic": 5515,
      "taking": 5516,
      "boric": 5517,
      "zeth": 5518,
      "bangal": 5519,
      "kau": 5520,
      "10000": 5521,
      "spotted": 5522,
      "chief": 5523,
      "alongwith": 5524,
      "tilth": 5525,
      "221": 5526,
      "nipping": 5527,
      "quintals": 5528,
      "voliam": 5529,
      "joint": 5530,
      "aauc": 5531,
      "imazeth": 5532,
      "kunaram": 5533,
      "expiry": 5534,
      "success": 5535,
      "described": 5536,
      "safe": 5537,
      "nasdar": 5538,
      "neurobion": 5539,
      "01123381092": 5540,
      "baby": 5541,
      "strong": 5542,
      "diagnosis": 5543,
      "defoliators": 5544,
      "mechanical": 5545,
      "9435066297": 5546,
      "livestock": 5547,
      "985": 5548,
      "Be": 5549,
      "Ma": 5550,
      "fast": 5551,
      "jrc": 5552,
      "kb": 5553,
      "pup": 5554,
      "rated": 5555,
      "yfen": 5556,
      "त्र": 5557,
      "वा": 5558,
      "onil": 5559,
      "sevin": 5560,
      "alpara": 5561,
      "acity": 5562,
      "leo": 5563,
      "depo": 5564,
      "mamm": 5565,
      "move": 5566,
      "boot": 5567,
      "trecel": 5568,
      "athane": 5569,
      "minate": 5570,
      "teat": 5571,
      "storing": 5572,
      "75m": 5573,
      "sericulture": 5574,
      "1447": 5575,
      "teaspoon": 5576,
      "16kg": 5577,
      "vaccinate": 5578,
      "relative": 5579,
      "starting": 5580,
      "larva": 5581,
      "tissues": 5582,
      "deepali": 5583,
      "suspension": 5584,
      "council": 5585,
      "varying": 5586,
      "razol": 5587,
      "mohafol": 5588,
      "rogore": 5589,
      "deatils": 5590,
      "necrosis": 5591,
      "engineer": 5592,
      "145": 5593,
      "5days": 5594,
      "clay": 5595,
      "kre": 5596,
      "omic": 5597,
      "ones": 5598,
      "rak": 5599,
      "alguri": 5600,
      "appeti": 5601,
      "ication": 5602,
      "chow": 5603,
      "mannu": 5604,
      "ferrous": 5605,
      "prob": 5606,
      "gestion": 5607,
      "ump": 5608,
      "taste": 5609,
      "lod": 5610,
      "tical": 5611,
      "reddy": 5612,
      "ayan": 5613,
      "butox": 5614,
      "ficial": 5615,
      "infusion": 5616,
      "turn": 5617,
      "meri": 5618,
      "availab": 5619,
      "prat": 5620,
      "hormon": 5621,
      "panni": 5622,
      "discus": 5623,
      "cases": 5624,
      "helop": 5625,
      "mostly": 5626,
      "estion": 5627,
      "pyre": 5628,
      "medication": 5629,
      "collection": 5630,
      "continously": 5631,
      "plaster": 5632,
      "description": 5633,
      "niranjan": 5634,
      "agents": 5635,
      "tonophosph": 5636,
      "advantage": 5637,
      "ornamental": 5638,
      "&#": 5639,
      "bact": 5640,
      "fant": 5641,
      "garm": 5642,
      "pending": 5643,
      "rej": 5644,
      "meent": 5645,
      "ord": 5646,
      "stain": 5647,
      "plo": 5648,
      "const": 5649,
      "chance": 5650,
      "recomme": 5651,
      "immun": 5652,
      "bir": 5653,
      "umps": 5654,
      "location": 5655,
      "poll": 5656,
      "born": 5657,
      "no4": 5658,
      "mins": 5659,
      "ayar": 5660,
      "ficiency": 5661,
      "upd": 5662,
      "gue": 5663,
      "14kg": 5664,
      "profess": 5665,
      "cere": 5666,
      "layers": 5667,
      "wart": 5668,
      "udalguri": 5669,
      "0835": 5670,
      "amarphophallus": 5671,
      "weevils": 5672,
      "sciences": 5673,
      "activator": 5674,
      "continu": 5675,
      "kunwari": 5676,
      "selective": 5677,
      "pathogen": 5678,
      "beneficial": 5679,
      "vines": 5680,
      "counter": 5681,
      "managemnt": 5682,
      "metarhizium": 5683,
      "frequently": 5684,
      "easterly": 5685,
      "dormancy": 5686,
      "paclobutrazol": 5687,
      "miracul": 5688,
      "directorate": 5689,
      "glufosinate": 5690,
      "220g": 5691,
      "5204": 5692,
      "cia": 5693,
      "fig": 5694,
      "gain": 5695,
      "myclo": 5696,
      "rg": 5697,
      "tna": 5698,
      "oni": 5699,
      "list": 5700,
      "tory": 5701,
      "almost": 5702,
      "enrich": 5703,
      "compan": 5704,
      "ripe": 5705,
      "goi": 5706,
      "expon": 5707,
      "askinga": 5708,
      "pop": 5709,
      "phon": 5710,
      "30gm": 5711,
      "ayani": 5712,
      "shel": 5713,
      "current": 5714,
      "sive": 5715,
      "ducks": 5716,
      "diarro": 5717,
      "angement": 5718,
      "buds": 5719,
      "clove": 5720,
      "langu": 5721,
      "kernel": 5722,
      "coraban": 5723,
      "decomposition": 5724,
      "sindh": 5725,
      "9613": 5726,
      "kmno4": 5727,
      "grubs": 5728,
      "confidence": 5729,
      "oestrous": 5730,
      "dispensary": 5731,
      "apuram": 5732,
      "sajuli": 5733,
      "cowdang": 5734,
      "mammary": 5735,
      "myclobutanil": 5736,
      "Poor": 5737,
      "arom": 5738,
      "cam": 5739,
      "tul": 5740,
      "ने": 5741,
      "কর": 5742,
      "মা": 5743,
      "remon": 5744,
      "live": 5745,
      "starch": 5746,
      "tified": 5747,
      "sea": 5748,
      "icillium": 5749,
      "uty": 5750,
      "itapyr": 5751,
      "dif": 5752,
      "50wp": 5753,
      "quary": 5754,
      "intercrops": 5755,
      "shad": 5756,
      "capacity": 5757,
      "forecast": 5758,
      "lanting": 5759,
      "24kg": 5760,
      "pankaj": 5761,
      "pulp": 5762,
      "karate": 5763,
      "sheep": 5764,
      "spouse": 5765,
      "2401": 5766,
      "943552": 5767,
      "balls": 5768,
      "poisoning": 5769,
      "psuedomonas": 5770,
      "imazitapyr": 5771,
      "certificate": 5772,
      "varrietes": 5773,
      "baksa": 5774,
      "blotch": 5775,
      "tympan": 5776,
      "exponus": 5777,
      "aromatic": 5778,
      "97": 5779,
      "crd": 5780,
      "jat": 5781,
      "mass": 5782,
      "pd": 5783,
      "rl": 5784,
      "স্": 5785,
      "inim": 5786,
      "lia": 5787,
      "lik": 5788,
      "eda": 5789,
      "ingredi": 5790,
      "plox": 5791,
      "alu": 5792,
      "consu": 5793,
      "sud": 5794,
      "iter": 5795,
      "det": 5796,
      "terial": 5797,
      "double": 5798,
      "eltis": 5799,
      "sooty": 5800,
      "expli": 5801,
      "ared": 5802,
      "applications": 5803,
      "15g": 5804,
      "shell": 5805,
      "1224": 5806,
      "tuf": 5807,
      "hep": 5808,
      "vigo": 5809,
      "150mg": 5810,
      "ilities": 5811,
      "duckling": 5812,
      "managmeent": 5813,
      "alternaria": 5814,
      "meters": 5815,
      "close": 5816,
      "document": 5817,
      "surankand": 5818,
      "activated": 5819,
      "opening": 5820,
      "nutritional": 5821,
      "sarma": 5822,
      "कारी": 5823,
      "filed": 5824,
      "gummosis": 5825,
      "maggoted": 5826,
      "delta": 5827,
      "dimacron": 5828,
      "capsule": 5829,
      "chlorothal": 5830,
      "parturation": 5831,
      "krena": 5832,
      "birth": 5833,
      "professor": 5834,
      "tnau": 5835,
      "language": 5836,
      "9435521447": 5837,
      "inimox": 5838,
      "960": 5839,
      "In": 5840,
      "aque": 5841,
      "data": 5842,
      "hing": 5843,
      "hamp": 5844,
      "iver": 5845,
      "ken": 5846,
      "uas": 5847,
      "vam": 5848,
      "wed": 5849,
      "zhi": 5850,
      "आप": 5851,
      "মি": 5852,
      "inactive": 5853,
      "erio": 5854,
      "anal": 5855,
      "tocontrol": 5856,
      "toll": 5857,
      "conjun": 5858,
      "sukrena": 5859,
      "dehy": 5860,
      "besides": 5861,
      "imately": 5862,
      "feron": 5863,
      "solo": 5864,
      "hima": 5865,
      "bovine": 5866,
      "canopy": 5867,
      "moni": 5868,
      "earli": 5869,
      "shri": 5870,
      "cali": 5871,
      "neemcake": 5872,
      "botrione": 5873,
      "rajendra": 5874,
      "kuwari": 5875,
      "swab": 5876,
      "tembotrione": 5877,
      "alternating": 5878,
      "factor": 5879,
      "remains": 5880,
      "110g": 5881,
      "physio": 5882,
      "dinanath": 5883,
      "centers": 5884,
      "coorg": 5885,
      "samruddhi": 5886,
      "dilution": 5887,
      "function": 5888,
      "manganese": 5889,
      "correct": 5890,
      "cooking": 5891,
      "cycle": 5892,
      "robust": 5893,
      "deposit": 5894,
      "175": 5895,
      "No": 5896,
      "git": 5897,
      "lata": 5898,
      "tz": 5899,
      "ugu": 5900,
      "vali": 5901,
      "नि": 5902,
      "recover": 5903,
      "atleast": 5904,
      "thus": 5905,
      "metri": 5906,
      "rox": 5907,
      "gene": 5908,
      "coimb": 5909,
      "anded": 5910,
      "ador": 5911,
      "isab": 5912,
      "lesen": 5913,
      "itro": 5914,
      "itali": 5915,
      "desh": 5916,
      "manu": 5917,
      "damag": 5918,
      "division": 5919,
      "bec": 5920,
      "ellic": 5921,
      "unable": 5922,
      "pegas": 5923,
      "varies": 5924,
      "loose": 5925,
      "???????????": 5926,
      "nai": 5927,
      "hya": 5928,
      "bacill": 5929,
      "pont": 5930,
      "75kg": 5931,
      "upra": 5932,
      "azosp": 5933,
      "here": 5934,
      "composting": 5935,
      "goats": 5936,
      "sunny": 5937,
      "animals": 5938,
      "ciplox": 5939,
      "places": 5940,
      "propagated": 5941,
      "tricyclazol": 5942,
      "approximately": 5943,
      "steptomycine": 5944,
      "recco": 5945,
      "rediff": 5946,
      "aspect": 5947,
      "saplings": 5948,
      "false": 5949,
      "murate": 5950,
      "fowl": 5951,
      "pratap": 5952,
      "helopeltis": 5953,
      "fantac": 5954,
      "tympanitis": 5955,
      "sudden": 5956,
      "explian": 5957,
      "lesenta": 5958,
      "italian": 5959,
      "-,": 5960,
      "491": 5961,
      "89": 5962,
      "curd": 5963,
      "hind": 5964,
      "jaya": 5965,
      "kanak": 5966,
      "oat": 5967,
      "wal": 5968,
      "टर": 5969,
      "यो": 5970,
      "তে": 5971,
      "ini": 5972,
      "sequent": 5973,
      "administ": 5974,
      "sumi": 5975,
      "gracia": 5976,
      "dazole": 5977,
      "imferon": 5978,
      "goalpara": 5979,
      "aba": 5980,
      "atore": 5981,
      "racron": 5982,
      "malbhog": 5983,
      "pha": 5984,
      "phen": 5985,
      "195": 5986,
      "zoid": 5987,
      "500mg": 5988,
      "bettle": 5989,
      "ifsc": 5990,
      "kilograms": 5991,
      "viplex": 5992,
      "pyrithio": 5993,
      "deppt": 5994,
      "panch": 5995,
      "subsequent": 5996,
      "sign": 5997,
      "trico": 5998,
      "shows": 5999,
      "caseworm": 6000,
      "served": 6001,
      "facilities": 6002,
      "browning": 6003,
      "voter": 6004,
      "dont": 6005,
      "groviplex": 6006,
      "neozoid": 6007,
      "lecanicillium": 6008,
      "ulceration": 6009,
      "primary": 6010,
      "loosen": 6011,
      "channel": 6012,
      "circular": 6013,
      "premium": 6014,
      "katki": 6015,
      "manohar": 6016,
      "vienna": 6017,
      "reagrding": 6018,
      "applicaton": 6019,
      "thirps": 6020,
      "imazethapyr": 6021,
      "larvae": 6022,
      "physiological": 6023,
      "pegasus": 6024,
      "pyrithiobac": 6025,
      ")(": 6026,
      "112": 6027,
      "113": 6028,
      "835": 6029,
      "CB": 6030,
      "aigaon": 6031,
      "blite": 6032,
      "ech": 6033,
      "fet": 6034,
      "favo": 6035,
      "ged": 6036,
      "hs": 6037,
      "hist": 6038,
      "vic": 6039,
      "vos": 6040,
      "पर्": 6041,
      "है": 6042,
      "inda": 6043,
      "req": 6044,
      "reten": 6045,
      "ligi": 6046,
      "stec": 6047,
      "always": 6048,
      "ening": 6049,
      "ures": 6050,
      "chit": 6051,
      "dev": 6052,
      "implement": 6053,
      "ghost": 6054,
      "maj": 6055,
      "505": 6056,
      "10th": 6057,
      "istic": 6058,
      "minfa": 6059,
      "redden": 6060,
      "unds": 6061,
      "potatoes": 6062,
      "curacron": 6063,
      "scab": 6064,
      "ience": 6065,
      "producing": 6066,
      "breeds": 6067,
      "veten": 6068,
      "carband": 6069,
      "ived": 6070,
      "reducing": 6071,
      "ethion": 6072,
      "gentamycin": 6073,
      "severely": 6074,
      "vitaplex": 6075,
      "ambition": 6076,
      "collected": 6077,
      "antibiotics": 6078,
      "informing": 6079,
      "construct": 6080,
      "easily": 6081,
      "gibberellic": 6082,
      "ferterra": 6083,
      "mannuthy": 6084,
      "panniyur": 6085,
      "hampshire": 6086,
      "ivermectin": 6087,
      "uprasad": 6088,
      "retention": 6089,
      "?.": 6090,
      "lot": 6091,
      "nia": 6092,
      "rum": 6093,
      "sli": 6094,
      "vaya": 6095,
      "zing": 6096,
      "ins": 6097,
      "sex": 6098,
      "uresc": 6099,
      "gogoi": 6100,
      "ferilizer": 6101,
      "seeder": 6102,
      "seedbed": 6103,
      "illum": 6104,
      "reddish": 6105,
      "ayam": 6106,
      "??????????": 6107,
      "azophos": 6108,
      "lets": 6109,
      "tilachlor": 6110,
      "acidic": 6111,
      "discard": 6112,
      "tapping": 6113,
      "morigaon": 6114,
      "gged": 6115,
      "sparay": 6116,
      "several": 6117,
      "polish": 6118,
      "meghabor": 6119,
      "kulthi": 6120,
      "kultha": 6121,
      "ranges": 6122,
      "moxel": 6123,
      "diluted": 6124,
      "sivsagar": 6125,
      "ification": 6126,
      "adopted": 6127,
      "galileo": 6128,
      "limited": 6129,
      "nabard": 6130,
      "wonder": 6131,
      "bangalore": 6132,
      "Maize": 6133,
      "chlorothalonil": 6134,
      "coimbatore": 6135,
      "पर्क": 6136,
      "reddening": 6137,
      "econ": 6138,
      "iya": 6139,
      "kon": 6140,
      "lac": 6141,
      "pic": 6142,
      "upper": 6143,
      "wate": 6144,
      "wast": 6145,
      "invol": 6146,
      "anch": 6147,
      "ress": 6148,
      "atone": 6149,
      "thick": 6150,
      "stw": 6151,
      "aris": 6152,
      "tia": 6153,
      "titab": 6154,
      "copy": 6155,
      "asso": 6156,
      "apy": 6157,
      "peroxide": 6158,
      "uture": 6159,
      "ular": 6160,
      "box": 6161,
      "lorop": 6162,
      "poo": 6163,
      "nozz": 6164,
      "foe": 6165,
      "nee": 6166,
      "30ec": 6167,
      "tez": 6168,
      "byr": 6169,
      "cules": 6170,
      "protective": 6171,
      "working": 6172,
      "older": 6173,
      "insecti": 6174,
      "hort": 6175,
      "certified": 6176,
      "adiol": 6177,
      "abour": 6178,
      "scientific": 6179,
      "phytop": 6180,
      "joy": 6181,
      "netting": 6182,
      "ewr": 6183,
      "situ": 6184,
      "jai": 6185,
      "prophylatic": 6186,
      "formula": 6187,
      "filter": 6188,
      "aquatic": 6189,
      "Which": 6190,
      "संपर्क": 6191,
      "meriquin": 6192,
      "recommeded": 6193,
      "sindhuri": 6194,
      "metribu": 6195,
      "isabion": 6196,
      "azospir": 6197,
      "1tab": 6198,
      "9th": 6199,
      "Spray": 6200,
      "ee": 6201,
      "eco": 6202,
      "estrous": 6203,
      "gau": 6204,
      "hap": 6205,
      "lbg": 6206,
      "pick": 6207,
      "sack": 6208,
      "tex": 6209,
      "uma": 6210,
      "vag": 6211,
      "vana": 6212,
      "নি": 6213,
      "াল": 6214,
      "ergy": 6215,
      "asaf": 6216,
      "consum": 6217,
      "term": 6218,
      "padan": 6219,
      "ety": 6220,
      "102": 6221,
      "phu": 6222,
      "255": 6223,
      "preci": 6224,
      "pretilachlor": 6225,
      "turbid": 6226,
      "vivaya": 6227,
      "organis": 6228,
      "guord": 6229,
      "providing": 6230,
      "blos": 6231,
      "???.": 6232,
      "sales": 6233,
      "needs": 6234,
      "sanitation": 6235,
      "starter": 6236,
      "alternative": 6237,
      "activation": 6238,
      "colouration": 6239,
      "aauj": 6240,
      "rhinocerous": 6241,
      "balanced": 6242,
      "catterpillar": 6243,
      "jeev": 6244,
      "uminium": 6245,
      "crystocyclin": 6246,
      "chetki": 6247,
      "pollination": 6248,
      "reccomended": 6249,
      "kanaklata": 6250,
      "51": 6251,
      "bong": 6252,
      "camp": 6253,
      "hear": 6254,
      "kav": 6255,
      "mh": 6256,
      "nac": 6257,
      "nim": 6258,
      "nial": 6259,
      "ody": 6260,
      "zen": 6261,
      "্য": 6262,
      "iness": 6263,
      "informed": 6264,
      "aniso": 6265,
      "reli": 6266,
      "repe": 6267,
      "atma": 6268,
      "towards": 6269,
      "mel": 6270,
      "metr": 6271,
      "ark": 6272,
      "plen": 6273,
      "assame": 6274,
      "ila": 6275,
      "deleg": 6276,
      "antracnose": 6277,
      "did": 6278,
      "hoo": 6279,
      "question": 6280,
      "20th": 6281,
      "avoc": 6282,
      "money": 6283,
      "198": 6284,
      "tee": 6285,
      "12th": 6286,
      "ocap": 6287,
      "indigestion": 6288,
      "aminose": 6289,
      "hercules": 6290,
      "anya": 6291,
      "111": 6292,
      "submer": 6293,
      "disase": 6294,
      "triazophos": 6295,
      "mgso4": 6296,
      "9436": 6297,
      "antihist": 6298,
      "matured": 6299,
      "clone": 6300,
      "pradesh": 6301,
      "varuna": 6302,
      "hydrox": 6303,
      "selling": 6304,
      "observed": 6305,
      "aneously": 6306,
      "prevents": 6307,
      "osene": 6308,
      "enhan": 6309,
      "heavily": 6310,
      "dilute": 6311,
      "restrict": 6312,
      "ization": 6313,
      "appearance": 6314,
      "neuroxin": 6315,
      "kindly": 6316,
      "critical": 6317,
      "pyriproxyfen": 6318,
      "mangala": 6319,
      "mangalam": 6320,
      "nirmal": 6321,
      "01123382401": 6322,
      "hydrate": 6323,
      "alkaline": 6324,
      "harmful": 6325,
      "campus": 6326,
      "deltamethrin": 6327,
      "eriophy": 6328,
      "tezpur": 6329,
      "assamese": 6330,
      "delegate": 6331,
      "490": 6332,
      "7m": 6333,
      "850gm": 6334,
      "To": 6335,
      "aic": 6336,
      "grom": 6337,
      "qwer": 6338,
      "rato": 6339,
      "rkv": 6340,
      "rint": 6341,
      "tray": 6342,
      "vak": 6343,
      "yet": 6344,
      "क्": 6345,
      "सम": 6346,
      "्म": 6347,
      "লি": 6348,
      "roun": 6349,
      "stamp": 6350,
      "conn": 6351,
      "pers": 6352,
      "sus": 6353,
      "deli": 6354,
      "delic": 6355,
      "deshi": 6356,
      "ecu": 6357,
      "bihar": 6358,
      "advance": 6359,
      "veg": 6360,
      "seeding": 6361,
      "pliae": 6362,
      "boli": 6363,
      "boran": 6364,
      "152": 6365,
      "varietal": 6366,
      "actual": 6367,
      "dres": 6368,
      "presence": 6369,
      "40ml": 6370,
      "bendazole": 6371,
      "heli": 6372,
      "60kg": 6373,
      "bhu": 6374,
      "5000": 6375,
      "fication": 6376,
      "indic": 6377,
      "stool": 6378,
      "intram": 6379,
      "ltrs": 6380,
      "pith": 6381,
      "preparing": 6382,
      "pencil": 6383,
      "pramod": 6384,
      "maintained": 6385,
      "those": 6386,
      "kerosene": 6387,
      "pregnency": 6388,
      "finances": 6389,
      "brijal": 6390,
      "pesara": 6391,
      "tillage": 6392,
      "affecting": 6393,
      "navane": 6394,
      "uterine": 6395,
      "eligible": 6396,
      "meaus": 6397,
      "pudd": 6398,
      "tonophosphen": 6399,
      "rediffmail": 6400,
      "tricoderma": 6401,
      "metribuzin": 6402,
      "azospirillum": 6403,
      "precipit": 6404,
      "anisopliae": 6405,
      "hydroxide": 6406,
      "117": 6407,
      "224": 6408,
      "At": 6409,
      "Dep": 6410,
      "bt": 6411,
      "ham": 6412,
      "oh": 6413,
      "pti": 6414,
      "pent": 6415,
      "sr": 6416,
      "wok": 6417,
      "eri": 6418,
      "ret": 6419,
      "aper": 6420,
      "ennial": 6421,
      "force": 6422,
      "mentation": 6423,
      "grading": 6424,
      "rib": 6425,
      "divided": 6426,
      "doot": 6427,
      "soda": 6428,
      "10gram": 6429,
      "amycin": 6430,
      "plition": 6431,
      "neema": 6432,
      "25ml": 6433,
      "asha": 6434,
      "ridf": 6435,
      "luke": 6436,
      "hail": 6437,
      "bhavan": 6438,
      "attach": 6439,
      "80ml": 6440,
      "history": 6441,
      "flour": 6442,
      "flouresc": 6443,
      "irrigations": 6444,
      "lai": 6445,
      "270": 6446,
      "baout": 6447,
      "furadan": 6448,
      "portions": 6449,
      "dinocap": 6450,
      "averi": 6451,
      "tender": 6452,
      "thalin": 6453,
      "kotta": 6454,
      "karimnagar": 6455,
      "orchard": 6456,
      "advisory": 6457,
      "shape": 6458,
      "compatability": 6459,
      "pathogens": 6460,
      "robusta": 6461,
      "avocado": 6462,
      "rkvy": 6463,
      "120g": 6464,
      "391": 6465,
      "5mg": 6466,
      "bing": 6467,
      "hay": 6468,
      "ido": 6469,
      "jhar": 6470,
      "kus": 6471,
      "nf": 6472,
      "nig": 6473,
      "ert": 6474,
      "meton": 6475,
      "thenai": 6476,
      "alok": 6477,
      "cocc": 6478,
      "iling": 6479,
      "apura": 6480,
      "energy": 6481,
      "achi": 6482,
      "isoc": 6483,
      "demeton": 6484,
      "contan": 6485,
      "gramin": 6486,
      "moc": 6487,
      "examine": 6488,
      "notic": 6489,
      "ashree": 6490,
      "verification": 6491,
      "shine": 6492,
      "blade": 6493,
      "tele": 6494,
      "chlorim": 6495,
      "parv": 6496,
      "parbhani": 6497,
      "mangoste": 6498,
      "300gm": 6499,
      "brood": 6500,
      "pyriphos": 6501,
      "practise": 6502,
      "rsk": 6503,
      "millets": 6504,
      "2846": 6505,
      "70g": 6506,
      "thank": 6507,
      "rabies": 6508,
      "difference": 6509,
      "predn": 6510,
      "phys": 6511,
      "excellent": 6512,
      "difenthiuron": 6513,
      "roden": 6514,
      "ahmed": 6515,
      "fentus": 6516,
      "fermentation": 6517,
      "establishment": 6518,
      "obtained": 6519,
      "coloration": 6520,
      "complaint": 6521,
      "rabbit": 6522,
      "znso4": 6523,
      "sprouting": 6524,
      "confirmation": 6525,
      "controle": 6526,
      "synthetic": 6527,
      "jersey": 6528,
      "washington": 6529,
      "discuss": 6530,
      "conjunctiv": 6531,
      "gitesh": 6532,
      "योज": 6533,
      "economic": 6534,
      "blossom": 6535,
      "campbell": 6536,
      "repeated": 6537,
      "qwerry": 6538,
      "precipitation": 6539,
      "isocyclo": 6540,
      "mangosteen": 6541,
      "Lo": 6542,
      "bus": 6543,
      "eties": 6544,
      "ib": 6545,
      "kish": 6546,
      "kang": 6547,
      "pari": 6548,
      "pinch": 6549,
      "rp": 6550,
      "अधि": 6551,
      "regrading": 6552,
      "thing": 6553,
      "thic": 6554,
      "lil": 6555,
      "secre": 6556,
      "litewr": 6557,
      "cher": 6558,
      "dee": 6559,
      "contender": 6560,
      "recommed": 6561,
      "god": 6562,
      "godre": 6563,
      "sound": 6564,
      "umn": 6565,
      "vey": 6566,
      "rubi": 6567,
      "raclo": 6568,
      "athion": 6569,
      "malthion": 6570,
      "sai": 6571,
      "regar": 6572,
      "useful": 6573,
      "ayak": 6574,
      "shallow": 6575,
      "zox": 6576,
      "blackpepper": 6577,
      "biting": 6578,
      ".....": 6579,
      "vikash": 6580,
      "seram": 6581,
      "transport": 6582,
      "262": 6583,
      "acidity": 6584,
      "suited": 6585,
      "prime": 6586,
      "amox": 6587,
      "sunn": 6588,
      "moringa": 6589,
      "bengalgram": 6590,
      "chloropyriphose": 6591,
      "ville": 6592,
      "targa": 6593,
      "burning": 6594,
      "flush": 6595,
      "cocopeat": 6596,
      "masuri": 6597,
      "jaha": 6598,
      "compatible": 6599,
      "mukhya": 6600,
      "23086": 6601,
      "stalk": 6602,
      "nadu": 6603,
      "floratone": 6604,
      "smell": 6605,
      "incubation": 6606,
      "thresh": 6607,
      "tulsi": 6608,
      "titabor": 6609,
      "योजना": 6610,
      "isocycloseram": 6611,
      "23086100": 6612,
      "1litres": 6613,
      "Weed": 6614,
      "ama": 6615,
      "hang": 6616,
      "nuprasad": 6617,
      "otic": 6618,
      "tat": 6619,
      "xx": 6620,
      "zanide": 6621,
      "ाम": 6622,
      "indust": 6623,
      "lika": 6624,
      "mesure": 6625,
      "arvi": 6626,
      "tirose": 6627,
      "coast": 6628,
      "ilding": 6629,
      "aci": 6630,
      "deaux": 6631,
      "detial": 6632,
      "urium": 6633,
      "graft": 6634,
      "dak": 6635,
      "becomes": 6636,
      "sugge": 6637,
      "emia": 6638,
      "emplo": 6639,
      "poinse": 6640,
      "position": 6641,
      "pouring": 6642,
      "nomini": 6643,
      "roting": 6644,
      "cutirose": 6645,
      "calshakti": 6646,
      "capsul": 6647,
      "juna": 6648,
      "basmati": 6649,
      "133": 6650,
      "sampoor": 6651,
      "anthurium": 6652,
      "properties": 6653,
      "mahaphol": 6654,
      "instal": 6655,
      "follows": 6656,
      "azine": 6657,
      "barsati": 6658,
      "mortor": 6659,
      "droppings": 6660,
      "sett": 6661,
      "castrated": 6662,
      "praful": 6663,
      "recoo": 6664,
      "unique": 6665,
      "pyraclo": 6666,
      "ethoxy": 6667,
      "wetting": 6668,
      "struction": 6669,
      "fertlizers": 6670,
      "wooden": 6671,
      "novaluran": 6672,
      "surekha": 6673,
      "984": 6674,
      "loxacin": 6675,
      "resulting": 6676,
      "blooming": 6677,
      "carbosulfan": 6678,
      "characteristic": 6679,
      "endosulfan": 6680,
      "officials": 6681,
      "convenient": 6682,
      "vellayani": 6683,
      "hatchery": 6684,
      "occurs": 6685,
      "rejected": 6686,
      "miraculan": 6687,
      "enriched": 6688,
      "vigorous": 6689,
      "gromor": 6690,
      "noticed": 6691,
      "physical": 6692,
      "sampoorna": 6693,
      "pyraclostrobin": 6694,
      "%-": 6695,
      ",.": 6696,
      "2mg": 6697,
      "aut": 6698,
      "bred": 6699,
      "cly": 6700,
      "crush": 6701,
      "grs": 6702,
      "hra": 6703,
      "map": 6704,
      "o2": 6705,
      "pas": 6706,
      "pand": 6707,
      "vant": 6708,
      "গ্র": 6709,
      "erad": 6710,
      "anthe": 6711,
      "rey": 6712,
      "rap": 6713,
      "rope": 6714,
      "rogue": 6715,
      "arbi": 6716,
      "sevak": 6717,
      "atery": 6718,
      "coupl": 6719,
      "adri": 6720,
      "suu": 6721,
      "died": 6722,
      "goan": 6723,
      "maangement": 6724,
      "mole": 6725,
      "fertizer": 6726,
      "tai": 6727,
      "tamil": 6728,
      "amil": 6729,
      "bera": 6730,
      "15ml": 6731,
      "301": 6732,
      "ashgourd": 6733,
      "dup": 6734,
      "cmber": 6735,
      "75cm": 6736,
      "amination": 6737,
      "namely": 6738,
      "150ml": 6739,
      "supernat": 6740,
      "pico": 6741,
      "sensa": 6742,
      "deputy": 6743,
      "pani": 6744,
      "showers": 6745,
      "trainning": 6746,
      "supplied": 6747,
      "gerbera": 6748,
      "midon": 6749,
      "ketki": 6750,
      "gladiol": 6751,
      "dipali": 6752,
      "bengaluru": 6753,
      "recommende": 6754,
      "sell": 6755,
      "decomposed": 6756,
      "takaf": 6757,
      "zero": 6758,
      "jyotiprasad": 6759,
      "nellore": 6760,
      "eliminate": 6761,
      "kannur": 6762,
      "performan": 6763,
      "genol": 6764,
      "mammit": 6765,
      "দিন": 6766,
      "eugenol": 6767,
      "mahali": 6768,
      "stagnation": 6769,
      "त्री": 6770,
      "bactin": 6771,
      "bongaigaon": 6772,
      "्मान": 6773,
      "roundup": 6774,
      "dressol": 6775,
      "detials": 6776,
      "coupled": 6777,
      "6ml": 6778,
      "650": 6779,
      "73": 6780,
      "bhar": 6781,
      "kadi": 6782,
      "labour": 6783,
      "nan": 6784,
      "nase": 6785,
      "nce": 6786,
      "ober": 6787,
      "rm": 6788,
      "धान": 6789,
      "াম": 6790,
      "attract": 6791,
      "mech": 6792,
      "orrow": 6793,
      "alpha": 6794,
      "aluminium": 6795,
      "cole": 6796,
      "enrof": 6797,
      "adul": 6798,
      "mla": 6799,
      "suhara": 6800,
      "chol": 6801,
      "compare": 6802,
      "grasses": 6803,
      "afric": 6804,
      "otrim": 6805,
      "sugg": 6806,
      "sou": 6807,
      "expi": 6808,
      "amone": 6809,
      "2017": 6810,
      "tomorrow": 6811,
      "whiti": 6812,
      "190": 6813,
      "stemborer": 6814,
      "raining": 6815,
      "haz": 6816,
      "capra": 6817,
      "yriphos": 6818,
      "repellent": 6819,
      "availing": 6820,
      "sitive": 6821,
      "144": 6822,
      "227": 6823,
      "rajma": 6824,
      "proved": 6825,
      "clumps": 6826,
      "hexacon": 6827,
      "21st": 6828,
      "reduction": 6829,
      "consultation": 6830,
      "normally": 6831,
      "activity": 6832,
      "prediction": 6833,
      "ethylene": 6834,
      "anistamine": 6835,
      "inocul": 6836,
      "orchid": 6837,
      "promote": 6838,
      "beginning": 6839,
      "external": 6840,
      "icidal": 6841,
      "isolone": 6842,
      "particularly": 6843,
      "cereals": 6844,
      "deposited": 6845,
      "निधि": 6846,
      "aspects": 6847,
      "CBS": 6848,
      "phytopthora": 6849,
      "eriophyid": 6850,
      "intramus": 6851,
      "rodenticide": 6852,
      "godrej": 6853,
      "recoomended": 6854,
      "ethoxysulfuron": 6855,
      "gladiolus": 6856,
      "whitish": 6857,
      "046": 6858,
      "260g": 6859,
      "8sl": 6860,
      "837": 6861,
      ";&#": 6862,
      "ided": 6863,
      "kod": 6864,
      "pto": 6865,
      "ग्र": 6866,
      "जान": 6867,
      "জি": 6868,
      "তি": 6869,
      "inorganic": 6870,
      "input": 6871,
      "eric": 6872,
      "anut": 6873,
      "atment": 6874,
      "offer": 6875,
      "onac": 6876,
      "mean": 6877,
      "roiler": 6878,
      "romai": 6879,
      "spry": 6880,
      "coir": 6881,
      "colon": 6882,
      "appu": 6883,
      "raya": 6884,
      "utens": 6885,
      "ches": 6886,
      "chron": 6887,
      "chew": 6888,
      "degra": 6889,
      "rise": 6890,
      "hook": 6891,
      "expose": 6892,
      "ropine": 6893,
      "lying": 6894,
      "rucha": 6895,
      "20cm": 6896,
      "pos": 6897,
      "saathi": 6898,
      "30th": 6899,
      "252": 6900,
      "dupont": 6901,
      "malathian": 6902,
      "iggery": 6903,
      "ranchi": 6904,
      "octa": 6905,
      "individ": 6906,
      "paln": 6907,
      "schem": 6908,
      "sized": 6909,
      "90g": 6910,
      "90cm": 6911,
      "signed": 6912,
      "2328": 6913,
      "coverpa": 6914,
      "angle": 6915,
      "exten": 6916,
      "900gm": 6917,
      "zeronac": 6918,
      "pottash": 6919,
      "mnded": 6920,
      "brah": 6921,
      "characters": 6922,
      "plucking": 6923,
      "boiling": 6924,
      "hircus": 6925,
      "moderately": 6926,
      "externally": 6927,
      "investment": 6928,
      "dichlorvos": 6929,
      "slightly": 6930,
      "record": 6931,
      "companies": 6932,
      "dehyde": 6933,
      "earlier": 6934,
      "steclin": 6935,
      "helicoverpa": 6936,
      "wokadine": 6937,
      "ribbed": 6938,
      "chlorimuron": 6939,
      "prednisolone": 6940,
      "thickness": 6941,
      "sunnhemp": 6942,
      "supernatant": 6943,
      "performance": 6944,
      "individual": 6945,
      "0f": 6946,
      "2mililiter": 6947,
      "335": 6948,
      "540": 6949,
      "840": 6950,
      "944": 6951,
      "ament": 6952,
      "aao": 6953,
      "acontan": 6954,
      "brot": 6955,
      "cure": 6956,
      "dul": 6957,
      "fit": 6958,
      "idi": 6959,
      "jay": 6960,
      "lure": 6961,
      "pc": 6962,
      "pco": 6963,
      "sathi": 6964,
      "vt": 6965,
      "wing": 6966,
      "yas": 6967,
      "ार": 6968,
      "াই": 6969,
      "ের": 6970,
      "inary": 6971,
      "plaque": 6972,
      "alt": 6973,
      "core": 6974,
      "aske": 6975,
      "charm": 6976,
      "demeth": 6977,
      "commended": 6978,
      "ribut": 6979,
      "recomanded": 6980,
      "managemental": 6981,
      "goatery": 6982,
      "suger": 6983,
      "moti": 6984,
      "lization": 6985,
      "expl": 6986,
      "104": 6987,
      "10cm": 6988,
      "amon": 6989,
      "avi": 6990,
      "valley": 6991,
      "nodes": 6992,
      "fomentation": 6993,
      "methi": 6994,
      "igation": 6995,
      "hyv": 6996,
      "palem": 6997,
      "oxymore": 6998,
      "drrh": 6999,
      "ified": 7000,
      "okkal": 7001,
      "halli": 7002,
      "chik": 7003,
      "decay": 7004,
      "beetel": 7005,
      "khuri": 7006,
      "ffered": 7007,
      "triacontan": 7008,
      "profit": 7009,
      "secondary": 7010,
      "equip": 7011,
      "thereafter": 7012,
      "granate": 7013,
      "surj": 7014,
      "fertilisers": 7015,
      "pymetro": 7016,
      "larvin": 7017,
      "kode": 7018,
      "napam": 7019,
      "allowing": 7020,
      "91496": 7021,
      "yamukhi": 7022,
      "apllication": 7023,
      "simult": 7024,
      "773": 7025,
      "64391": 7026,
      "0540": 7027,
      "rodents": 7028,
      "scarring": 7029,
      "download": 7030,
      "lactation": 7031,
      "premises": 7032,
      "psuedostem": 7033,
      "residu": 7034,
      "slowly": 7035,
      "bishnuprasad": 7036,
      "doptera": 7037,
      "9435564391": 7038,
      "pactus": 7039,
      "ingredients": 7040,
      "tufgor": 7041,
      "factors": 7042,
      "brooding": 7043,
      "poinset": 7044,
      "kadiri": 7045,
      "adults": 7046,
      "chronic": 7047,
      "brotone": 7048,
      "charmil": 7049,
      "triacontanol": 7050,
      "1o": 7051,
      "Nitro": 7052,
      "bhima": 7053,
      "jump": 7054,
      "jiggery": 7055,
      "lax": 7056,
      "nar": 7057,
      "vare": 7058,
      "wk": 7059,
      "ंत्री": 7060,
      "ति": 7061,
      "मंत्री": 7062,
      "ুন": 7063,
      "refer": 7064,
      "rao": 7065,
      "ror": 7066,
      "argul": 7067,
      "tient": 7068,
      "sem": 7069,
      "ples": 7070,
      "asa": 7071,
      "ilt": 7072,
      "chl": 7073,
      "dezim": 7074,
      "demand": 7075,
      "combi": 7076,
      "afamone": 7077,
      "bili": 7078,
      "host": 7079,
      "extrac": 7080,
      "mide": 7081,
      "200kg": 7082,
      "internet": 7083,
      "outer": 7084,
      "154": 7085,
      "minamil": 7086,
      "cultivating": 7087,
      "phora": 7088,
      "districts": 7089,
      "botle": 7090,
      "palnt": 7091,
      "note": 7092,
      "turns": 7093,
      "ganj": 7094,
      "repor": 7095,
      "aminic": 7096,
      "nursary": 7097,
      "carbendi": 7098,
      "266": 7099,
      "horn": 7100,
      "subven": 7101,
      "236": 7102,
      "triafamone": 7103,
      "kuchia": 7104,
      "ntrol": 7105,
      "recommened": 7106,
      "kalyan": 7107,
      "branching": 7108,
      "neriya": 7109,
      "049": 7110,
      "destroyed": 7111,
      "0484": 7112,
      "septic": 7113,
      "uprooting": 7114,
      "diameter": 7115,
      "pressed": 7116,
      "प्रधान": 7117,
      "oetida": 7118,
      "hills": 7119,
      "moderate": 7120,
      "environment": 7121,
      "shillongani": 7122,
      "wdg": 7123,
      "lodging": 7124,
      "likely": 7125,
      "poovan": 7126,
      "asafoetida": 7127,
      "consumption": 7128,
      "turbidity": 7129,
      "kavach": 7130,
      "delicious": 7131,
      "flourescense": 7132,
      "kottayam": 7133,
      "mammitel": 7134,
      "bactinash": 7135,
      "oberon": 7136,
      "ruchamax": 7137,
      "pymetrozine": 7138,
      "Nitrogen": 7139,
      "neriyamangalam": 7140,
      "114": 7141,
      "5litre": 7142,
      "cass": 7143,
      "dac": 7144,
      "fum": 7145,
      "fry": 7146,
      "khar": 7147,
      "kids": 7148,
      "lal": 7149,
      "ming": 7150,
      "nl": 7151,
      "prol": 7152,
      "sking": 7153,
      "ythia": 7154,
      "income": 7155,
      "insure": 7156,
      "thor": 7157,
      "roger": 7158,
      "sprey": 7159,
      "alone": 7160,
      "alpco": 7161,
      "eness": 7162,
      "adan": 7163,
      "perf": 7164,
      "lepi": 7165,
      "choc": 7166,
      "chances": 7167,
      "doing": 7168,
      "moly": 7169,
      "enty": 7170,
      "lopride": 7171,
      "cult": 7172,
      "value": 7173,
      "atosil": 7174,
      "leafs": 7175,
      "saali": 7176,
      "phil": 7177,
      "illa": 7178,
      "shot": 7179,
      "lorpid": 7180,
      "treating": 7181,
      "heap": 7182,
      "icides": 7183,
      "cucmber": 7184,
      "500gram": 7185,
      "hydrop": 7186,
      "composit": 7187,
      "turning": 7188,
      "leaving": 7189,
      "uptake": 7190,
      "opf": 7191,
      "piper": 7192,
      "carbendezim": 7193,
      "246": 7194,
      "anthrac": 7195,
      "longer": 7196,
      "bloatosil": 7197,
      "tradition": 7198,
      "whenever": 7199,
      "overnight": 7200,
      "sale": 7201,
      "fluthrin": 7202,
      "anoestrous": 7203,
      "295": 7204,
      "throughing": 7205,
      "granule": 7206,
      "pyrexia": 7207,
      "tarun": 7208,
      "kozhi": 7209,
      "gunther": 7210,
      "siness": 7211,
      "finish": 7212,
      "averia": 7213,
      "relevant": 7214,
      "answered": 7215,
      "bollworms": 7216,
      "skies": 7217,
      "2333": 7218,
      "popular": 7219,
      "thiomethoxam": 7220,
      "palakkad": 7221,
      "english": 7222,
      "karimganj": 7223,
      "isopro": 7224,
      "asipara": 7225,
      "additional": 7226,
      "criter": 7227,
      "bilasipara": 7228,
      "ttb": 7229,
      "considered": 7230,
      "minimize": 7231,
      "tikkil": 7232,
      "damaged": 7233,
      "bacillus": 7234,
      "indaf": 7235,
      "picking": 7236,
      "associ": 7237,
      "nozzle": 7238,
      "सम्मान": 7239,
      "suugested": 7240,
      "african": 7241,
      "जानकारी": 7242,
      "chewing": 7243,
      "simultaneously": 7244,
      "ythiazox": 7245,
      "\u0003\u0004": 7246,
      "011": 7247,
      "ago": 7248,
      "bali": 7249,
      "cant": 7250,
      "ea": 7251,
      "garding": 7252,
      "jt": 7253,
      "kk": 7254,
      "kath": 7255,
      "kok": 7256,
      "kkara": 7257,
      "lts": 7258,
      "m2": 7259,
      "nana": 7260,
      "nature": 7261,
      "oper": 7262,
      "pg": 7263,
      "srin": 7264,
      "tum": 7265,
      "wan": 7266,
      "wanath": 7267,
      "xer": 7268,
      "ाई": 7269,
      "anto": 7270,
      "recm": 7271,
      "replace": 7272,
      "sta": 7273,
      "stri": 7274,
      "andhra": 7275,
      "acel": 7276,
      "adhaar": 7277,
      "own": 7278,
      "davari": 7279,
      "dable": 7280,
      "diphu": 7281,
      "ecli": 7282,
      "godavari": 7283,
      "abu": 7284,
      "provision": 7285,
      "50cm": 7286,
      "tax": 7287,
      "tamar": 7288,
      "expart": 7289,
      "emma": 7290,
      "embel": 7291,
      "plication": 7292,
      "cannot": 7293,
      "ineb": 7294,
      "15days": 7295,
      "sau": 7296,
      "said": 7297,
      "cultivat": 7298,
      "venously": 7299,
      "weeder": 7300,
      "126": 7301,
      "bhattach": 7302,
      "rooted": 7303,
      "knot": 7304,
      "indof": 7305,
      "drr": 7306,
      "productive": 7307,
      "sometimes": 7308,
      "cutworms": 7309,
      "megnesium": 7310,
      "experts": 7311,
      "floating": 7312,
      "biocontrol": 7313,
      "halflong": 7314,
      "447": 7315,
      "4416": 7316,
      "shown": 7317,
      "profe": 7318,
      "hatching": 7319,
      "baking": 7320,
      "7810": 7321,
      "compact": 7322,
      "hoeing": 7323,
      "muslin": 7324,
      "mandya": 7325,
      "vessel": 7326,
      "hini": 7327,
      "induction": 7328,
      "steps": 7329,
      "croiler": 7330,
      "enquire": 7331,
      "changes": 7332,
      "funnel": 7333,
      "sprinkler": 7334,
      "suggeted": 7335,
      "vijaya": 7336,
      "applicable": 7337,
      "matitis": 7338,
      "kurno": 7339,
      "butterfly": 7340,
      "notix": 7341,
      "abiu": 7342,
      "weighing": 7343,
      "knife": 7344,
      "seaweed": 7345,
      "oats": 7346,
      "2554416": 7347,
      "jeevam": 7348,
      "persist": 7349,
      "Depends": 7350,
      "jahaji": 7351,
      "autumn": 7352,
      "nasel": 7353,
      "utensil": 7354,
      "demethon": 7355,
      "poinsette": 7356,
      "chocking": 7357,
      "recmmended": 7358,
      "0mm": 7359,
      "1ltr": 7360,
      "836": 7361,
      "Bac": 7362,
      "Dise": 7363,
      "Is": 7364,
      "Why": 7365,
      "aa": 7366,
      "aasking": 7367,
      "cn": 7368,
      "csh": 7369,
      "drow": 7370,
      "ethe": 7371,
      "future": 7372,
      "gt": 7373,
      "gpu": 7374,
      "hup": 7375,
      "imet": 7376,
      "jus": 7377,
      "jeed": 7378,
      "kut": 7379,
      "ppr": 7380,
      "slanting": 7381,
      "vent": 7382,
      "vay": 7383,
      "yt": 7384,
      "zation": 7385,
      "টা": 7386,
      "বা": 7387,
      "indetails": 7388,
      "inser": 7389,
      "tham": 7390,
      "though": 7391,
      "still": 7392,
      "spl": 7393,
      "spices": 7394,
      "arun": 7395,
      "albendazole": 7396,
      "cou": 7397,
      "adjust": 7398,
      "isr": 7399,
      "grade": 7400,
      "daux": 7401,
      "eciency": 7402,
      "managemen": 7403,
      "doe": 7404,
      "biv": 7405,
      "agal": 7406,
      "agrl": 7407,
      "quinto": 7408,
      "203": 7409,
      "2025": 7410,
      "2021": 7411,
      "bani": 7412,
      "25cm": 7413,
      "ungal": 7414,
      "farmyard": 7415,
      "bavist": 7416,
      "buprofe": 7417,
      "capital": 7418,
      "visor": 7419,
      "ganic": 7420,
      "curing": 7421,
      "samba": 7422,
      "pio": 7423,
      "cultured": 7424,
      "evenly": 7425,
      "1600": 7426,
      "beetal": 7427,
      "thiru": 7428,
      "azar": 7429,
      "certain": 7430,
      "omyl": 7431,
      "therefore": 7432,
      "29kg": 7433,
      "pendist": 7434,
      "factam": 7435,
      "human": 7436,
      "chilies": 7437,
      "flat": 7438,
      "polyhouse": 7439,
      "yahoo": 7440,
      "carbofuron": 7441,
      "stopped": 7442,
      "napthalin": 7443,
      "kamrupa": 7444,
      "queen": 7445,
      "ानी": 7446,
      "thinly": 7447,
      "thinning": 7448,
      "enhances": 7449,
      "charcoal": 7450,
      "forestry": 7451,
      "fungi": 7452,
      "uprooted": 7453,
      "smoke": 7454,
      "reaches": 7455,
      "managemnet": 7456,
      "uterus": 7457,
      "inflammation": 7458,
      "confirm": 7459,
      "shaped": 7460,
      "vijayapura": 7461,
      "www": 7462,
      "garms": 7463,
      "aluva": 7464,
      "meausre": 7465,
      "pentine": 7466,
      "prafulla": 7467,
      "enrofloxacin": 7468,
      "perfect": 7469,
      "isoprothi": 7470,
      "tamarind": 7471,
      "kurnool": 7472,
      "imetla": 7473,
      "jeedimetla": 7474,
      "buprofezin": 7475,
      "'-": 7476,
      "360": 7477,
      "31st": 7478,
      "5o": 7479,
      "560": 7480,
      "8ml": 7481,
      "NP": 7482,
      "Plant": 7483,
      "db": 7484,
      "dho": 7485,
      "fs": 7486,
      "gate": 7487,
      "hil": 7488,
      "ie": 7489,
      "ida": 7490,
      "jro": 7491,
      "sain": 7492,
      "tone": 7493,
      "पर": 7494,
      "orig": 7495,
      "tice": 7496,
      "section": 7497,
      "alecto": 7498,
      "aplication": 7499,
      "peri": 7500,
      "perennial": 7501,
      "utra": 7502,
      "dao": 7503,
      "abop": 7504,
      "mainten": 7505,
      "bikash": 7506,
      "usami": 7507,
      "exam": 7508,
      "examination": 7509,
      "amid": 7510,
      "2015": 7511,
      "avare": 7512,
      "wester": 7513,
      "153": 7514,
      "sagoan": 7515,
      "phn": 7516,
      "bling": 7517,
      "peak": 7518,
      "milch": 7519,
      "informations": 7520,
      "cuso4": 7521,
      "bhag": 7522,
      "oilpalm": 7523,
      "repay": 7524,
      "bordeu": 7525,
      "breaking": 7526,
      "222": 7527,
      "904": 7528,
      "salivation": 7529,
      "instru": 7530,
      "imidaclopride": 7531,
      "vigor": 7532,
      "trailing": 7533,
      "transaction": 7534,
      "cleft": 7535,
      "bail": 7536,
      "droo": 7537,
      "hexythiazox": 7538,
      "barren": 7539,
      "nske": 7540,
      "periods": 7541,
      "78960": 7542,
      "liv52": 7543,
      "prag": 7544,
      "services": 7545,
      "rhidomil": 7546,
      "faces": 7547,
      "spreading": 7548,
      "prunning": 7549,
      "6696": 7550,
      "nitrogenous": 7551,
      "decomposing": 7552,
      "anephora": 7553,
      "sonalika": 7554,
      "856696": 7555,
      "tification": 7556,
      "bulb": 7557,
      "metsulfuron": 7558,
      "ship": 7559,
      "9149": 7560,
      "tolerance": 7561,
      "vinayak": 7562,
      "bonemeal": 7563,
      "simil": 7564,
      "lakhimi": 7565,
      "jeuti": 7566,
      "urable": 7567,
      "qtls": 7568,
      "gessted": 7569,
      "biofertilizers": 7570,
      "stirring": 7571,
      "albomar": 7572,
      "failure": 7573,
      "advantages": 7574,
      "diarrohoea": 7575,
      "9613856696": 7576,
      "diffic": 7577,
      "antihistaminic": 7578,
      "enhancing": 7579,
      "delivery": 7580,
      "conjunctivitis": 7581,
      "coastal": 7582,
      "capsularis": 7583,
      "characteristics": 7584,
      "compared": 7585,
      "intramuscularly": 7586,
      "ग्राम": 7587,
      "criteria": 7588,
      "bhattachary": 7589,
      "quintol": 7590,
      "NPK": 7591,
      "aboput": 7592,
      "2mililitre": 7593,
      "9g": 7594,
      "Ap": 7595,
      "azim": 7596,
      "ego": 7597,
      "ether": 7598,
      "fact": 7599,
      "jl": 7600,
      "kokra": 7601,
      "kshire": 7602,
      "kayam": 7603,
      "nant": 7604,
      "nimb": 7605,
      "path": 7606,
      "praj": 7607,
      "sav": 7608,
      "sree": 7609,
      "vc": 7610,
      "vul": 7611,
      "vly": 7612,
      "अप": 7613,
      "कृ": 7614,
      "कॉ": 7615,
      "पानी": 7616,
      "বি": 7617,
      "inhi": 7618,
      "ont": 7619,
      "rah": 7620,
      "rash": 7621,
      "rapid": 7622,
      "rou": 7623,
      "rodu": 7624,
      "spor": 7625,
      "sport": 7626,
      "seg": 7627,
      "corom": 7628,
      "asd": 7629,
      "icles": 7630,
      "ences": 7631,
      "acal": 7632,
      "ad3": 7633,
      "left": 7634,
      "ites": 7635,
      "chop": 7636,
      "mant": 7637,
      "dai": 7638,
      "abnormal": 7639,
      "union": 7640,
      "exist": 7641,
      "etr": 7642,
      "logenta": 7643,
      "tivation": 7644,
      "dha": 7645,
      "banraja": 7646,
      "tices": 7647,
      "grows": 7648,
      "borah": 7649,
      "dermatitis": 7650,
      "hira": 7651,
      "specia": 7652,
      "hema": 7653,
      "cyfluthrin": 7654,
      "feeders": 7655,
      "muster": 7656,
      "supervisor": 7657,
      "pigs": 7658,
      "sib": 7659,
      "requirements": 7660,
      "pursuit": 7661,
      "disconn": 7662,
      "osan": 7663,
      "28773": 7664,
      "27kg": 7665,
      "kud": 7666,
      "catlogenta": 7667,
      "clinch": 7668,
      "propineb": 7669,
      "fertilier": 7670,
      "livo": 7671,
      "agroclimatic": 7672,
      "faci": 7673,
      "initially": 7674,
      "budding": 7675,
      "8000": 7676,
      "spodoptera": 7677,
      "vermicomposting": 7678,
      "jalashree": 7679,
      "checking": 7680,
      "0422": 7681,
      "minerals": 7682,
      "cyperus": 7683,
      "hussain": 7684,
      "custom": 7685,
      "fourth": 7686,
      "preferred": 7687,
      "preferable": 7688,
      "meghdoot": 7689,
      "fertilize": 7690,
      "pottas": 7691,
      "webber": 7692,
      "sadh": 7693,
      "writ": 7694,
      "ugamycin": 7695,
      "hactare": 7696,
      "kasugamycin": 7697,
      "boreholes": 7698,
      "dicry": 7699,
      "running": 7700,
      "imazamox": 7701,
      "fyto": 7702,
      "residue": 7703,
      "bunds": 7704,
      "inflamation": 7705,
      "straight": 7706,
      "bheti": 7707,
      "cavend": 7708,
      "pyretic": 7709,
      "shelf": 7710,
      "heart": 7711,
      "metron": 7712,
      "niger": 7713,
      "expired": 7714,
      "carbendizim": 7715,
      "traditional": 7716,
      "kokum": 7717,
      "xerox": 7718,
      "drowsiness": 7719,
      "vayego": 7720,
      "bivinal": 7721,
      "isoprothiol": 7722,
      "western": 7723,
      "prajana": 7724,
      "coromand": 7725,
      "clincher": 7726,
      ")+": 7727,
      "480": 7728,
      "5cm": 7729,
      "6g": 7730,
      "CA": 7731,
      "Dry": 7732,
      "amla": 7733,
      "bum": 7734,
      "bwr": 7735,
      "bazar": 7736,
      "draw": 7737,
      "eight": 7738,
      "gir": 7739,
      "ginal": 7740,
      "ik": 7741,
      "ire": 7742,
      "kir": 7743,
      "nth": 7744,
      "o4": 7745,
      "pilli": 7746,
      "vised": 7747,
      "पी": 7748,
      "কি": 7749,
      "angi": 7750,
      "annum": 7751,
      "atonic": 7752,
      "onym": 7753,
      "todia": 7754,
      "mem": 7755,
      "means": 7756,
      "edul": 7757,
      "role": 7758,
      "secur": 7759,
      "alum": 7760,
      "alkot": 7761,
      "mend": 7762,
      "ensu": 7763,
      "conci": 7764,
      "acloprid": 7765,
      "adress": 7766,
      "fornia": 7767,
      "defin": 7768,
      "termin": 7769,
      "imple": 7770,
      "goes": 7771,
      "ellow": 7772,
      "umatic": 7773,
      "umtai": 7774,
      "exapar": 7775,
      "intercultural": 7776,
      "internal": 7777,
      "ldin": 7778,
      "cultu": 7779,
      "athur": 7780,
      "mixure": 7781,
      "thern": 7782,
      "cultivar": 7783,
      "lufen": 7784,
      "naz": 7785,
      "cyanide": 7786,
      "marginal": 7787,
      "gence": 7788,
      "oxyflu": 7789,
      "micronut": 7790,
      "kvk_": 7791,
      "oilseeds": 7792,
      "produces": 7793,
      "aki": 7794,
      "sometime": 7795,
      "psyl": 7796,
      "viable": 7797,
      "spliting": 7798,
      "aragu": 7799,
      "urient": 7800,
      "corri": 7801,
      "khumtai": 7802,
      "subside": 7803,
      "azi": 7804,
      "36kg": 7805,
      "overcome": 7806,
      "salinity": 7807,
      "kardi": 7808,
      "bagalkot": 7809,
      "burnt": 7810,
      "synonym": 7811,
      "1250g": 7812,
      "lesser": 7813,
      "900g": 7814,
      "hinosan": 7815,
      "nemu": 7816,
      "snails": 7817,
      "91485": 7818,
      "cristocyclin": 7819,
      "custodia": 7820,
      "crack": 7821,
      "jassid": 7822,
      "femal": 7823,
      "sixth": 7824,
      "affects": 7825,
      "cafe": 7826,
      "fenpyrox": 7827,
      "siddi": 7828,
      "monohydrate": 7829,
      "प्रति": 7830,
      "consist": 7831,
      "precautions": 7832,
      "pluck": 7833,
      "yester": 7834,
      "smearing": 7835,
      "deterior": 7836,
      "কেজি": 7837,
      "albomer": 7838,
      "bbbbbbbbbbbbbbbbbbbbbbbbbbbbbbbb": 7839,
      "kbsh": 7840,
      "booting": 7841,
      "updated": 7842,
      "california": 7843,
      "favourable": 7844,
      "majest": 7845,
      "ecodon": 7846,
      "organisms": 7847,
      "recommedned": 7848,
      "instalment": 7849,
      "passport": 7850,
      "anthel": 7851,
      "hydroponic": 7852,
      "7896028773": 7853,
      "kokrajhar": 7854,
      "sibsagar": 7855,
      "facilit": 7856,
      "pillipesara": 7857,
      "security": 7858,
      "lufenuron": 7859,
      "oxyfluor": 7860,
      "';-": 7861,
      "3days": 7862,
      "460": 7863,
      "6gm": 7864,
      "bq": 7865,
      "cg": 7866,
      "dasha": 7867,
      "fto": 7868,
      "gad": 7869,
      "ht": 7870,
      "iri": 7871,
      "iisr": 7872,
      "lad": 7873,
      "lliter": 7874,
      "lrg": 7875,
      "ou": 7876,
      "oy": 7877,
      "pf": 7878,
      "rt": 7879,
      "tru": 7880,
      "vish": 7881,
      "xtra": 7882,
      "zal": 7883,
      "ते": 7884,
      "ला": 7885,
      "ली": 7886,
      "ক্": 7887,
      "ining": 7888,
      "eros": 7889,
      "attrac": 7890,
      "rai": 7891,
      "raha": 7892,
      "rasi": 7893,
      "rashmi": 7894,
      "spell": 7895,
      "tips": 7896,
      "plum": 7897,
      "alon": 7898,
      "asis": 7899,
      "lee": 7900,
      "suldin": 7901,
      "commun": 7902,
      "mane": 7903,
      "ulub": 7904,
      "dob": 7905,
      "dysp": 7906,
      "dyas": 7907,
      "mocha": 7908,
      "withstand": 7909,
      "??.": 7910,
      "bodo": 7911,
      "ract": 7912,
      "cepti": 7913,
      "athe": 7914,
      "neel": 7915,
      "odis": 7916,
      "shedule": 7917,
      "401": 7918,
      "40gram": 7919,
      "partic": 7920,
      "miclo": 7921,
      "yog": 7922,
      "kng": 7923,
      "lands": 7924,
      "author": 7925,
      "solutions": 7926,
      "schedul": 7927,
      "howly": 7928,
      "caterpillers": 7929,
      "irrigating": 7930,
      "opti": 7931,
      "proces": 7932,
      "333": 7933,
      "licence": 7934,
      "fibre": 7935,
      "azacel": 7936,
      "traumatic": 7937,
      "stickers": 7938,
      "barley": 7939,
      "coloured": 7940,
      "taluk": 7941,
      "nih": 7942,
      "mililliter": 7943,
      "240g": 7944,
      "tillers": 7945,
      "putting": 7946,
      "lakshmi": 7947,
      "metador": 7948,
      "airtight": 7949,
      "patua": 7950,
      "supplementary": 7951,
      "simodis": 7952,
      "loamy": 7953,
      "grafted": 7954,
      "chou": 7955,
      "hactre": 7956,
      "biswanath": 7957,
      "veining": 7958,
      "21278": 7959,
      "mashuri": 7960,
      "convenience": 7961,
      "capsules": 7962,
      "sharp": 7963,
      "synthesis": 7964,
      "eligibility": 7965,
      "exposure": 7966,
      "generation": 7967,
      "mentioned": 7968,
      "identity": 7969,
      "bheem": 7970,
      "engineering": 7971,
      "appetite": 7972,
      "loosening": 7973,
      "wastes": 7974,
      "গ্রাম": 7975,
      "picoxystrobin": 7976,
      "surjyamukhi": 7977,
      "kozhikode": 7978,
      "pendistrin": 7979,
      "cavendish": 7980,
      "fenpyroximate": 7981,
      "oxyfluorfen": 7982,
      "erosion": 7983,
      "ulubari": 7984,
      "%).": 7985,
      "1litre": 7986,
      "2liters": 7987,
      "2mililliter": 7988,
      "375": 7989,
      "41kg": 7990,
      "915": 7991,
      ";'-": 7992,
      "aion": 7993,
      "bx": 7994,
      "cnut": 7995,
      "fas": 7996,
      "fam": 7997,
      "gri": 7998,
      "ique": 7999,
      "ls": 8000,
      "pist": 8001,
      "uery": 8002,
      "yor": 8003,
      "को": 8004,
      "वि": 8005,
      "ান": 8006,
      "onia": 8007,
      "rav": 8008,
      "rable": 8009,
      "meti": 8010,
      "mezo": 8011,
      "play": 8012,
      "asic": 8013,
      "contol": 8014,
      "acro": 8015,
      "addi": 8016,
      "lem": 8017,
      "utry": 8018,
      "chin": 8019,
      "competi": 8020,
      "owner": 8021,
      "rial": 8022,
      "rijus": 8023,
      "termeric": 8024,
      "roll": 8025,
      "dir": 8026,
      "bey": 8027,
      "beta": 8028,
      "beaveria": 8029,
      "gouri": 8030,
      "doi": 8031,
      "dol": 8032,
      "abot": 8033,
      "elong": 8034,
      "unda": 8035,
      "mahi": 8036,
      "bia": 8037,
      "padi": 8038,
      "pee": 8039,
      "execu": 8040,
      "amor": 8041,
      "ampli": 8042,
      "americ": 8043,
      "bodeaux": 8044,
      "logged": 8045,
      "interban": 8046,
      "bordaux": 8047,
      "mallika": 8048,
      "151": 8049,
      "noon": 8050,
      "dhm": 8051,
      "tick": 8052,
      "cultivable": 8053,
      "otherwise": 8054,
      "teja": 8055,
      "blister": 8056,
      "chloril": 8057,
      "4038": 8058,
      "durga": 8059,
      "cuchia": 8060,
      "okia": 8061,
      "introdu": 8062,
      "17th": 8063,
      "works": 8064,
      "viability": 8065,
      "option": 8066,
      "eatting": 8067,
      "sik": 8068,
      "siri": 8069,
      "uried": 8070,
      "pyrim": 8071,
      "11th": 8072,
      "228": 8073,
      "dusting": 8074,
      "ilium": 8075,
      "beetroot": 8076,
      "thimet": 8077,
      "kusum": 8078,
      "sunshine": 8079,
      "pseuodo": 8080,
      "chloa": 8081,
      "flumezo": 8082,
      "sanyog": 8083,
      "grind": 8084,
      "throughly": 8085,
      "marigaon": 8086,
      "extn": 8087,
      "nizam": 8088,
      "0819": 8089,
      "friut": 8090,
      "handique": 8091,
      "polybion": 8092,
      "24015": 8093,
      "paul": 8094,
      "jalokia": 8095,
      "cococnut": 8096,
      "sonali": 8097,
      "mealybug": 8098,
      "centimetre": 8099,
      "943509": 8100,
      "bden": 8101,
      "completed": 8102,
      "stein": 8103,
      "wheather": 8104,
      "kesri": 8105,
      "flesh": 8106,
      "runner": 8107,
      "namon": 8108,
      "sandalwood": 8109,
      "techniqu": 8110,
      "buying": 8111,
      "standards": 8112,
      "applicant": 8113,
      "apukhuri": 8114,
      "bundle": 8115,
      "substances": 8116,
      "প্রতি": 8117,
      "environmental": 8118,
      "notice": 8119,
      "macro": 8120,
      "agiri": 8121,
      "943534038": 8122,
      "puppy": 8123,
      "appetide": 8124,
      "স্ট": 8125,
      "analy": 8126,
      "solomon": 8127,
      "valid": 8128,
      "becid": 8129,
      "nimbecid": 8130,
      "puddling": 8131,
      "nfsm": 8132,
      "kishan": 8133,
      "transportation": 8134,
      "sugercane": 8135,
      "pgpr": 8136,
      "eclipse": 8137,
      "Bacterial": 8138,
      "drooping": 8139,
      "ad3e": 8140,
      "specialist": 8141,
      "scheduled": 8142,
      "executive": 8143,
      "ampligo": 8144,
      "flumezopyrim": 8145,
      "9435340387": 8146,
      "1tsf": 8147,
      "217": 8148,
      "450g": 8149,
      "5ec": 8150,
      "Soil": 8151,
      "buried": 8152,
      "cv": 8153,
      "cage": 8154,
      "cess": 8155,
      "dru": 8156,
      "gow": 8157,
      "ipyriphos": 8158,
      "jc": 8159,
      "lx": 8160,
      "lgg": 8161,
      "mukhi": 8162,
      "pam": 8163,
      "sir": 8164,
      "sium": 8165,
      "wel": 8166,
      "x45cm": 8167,
      "zi": 8168,
      "मि": 8169,
      "्य": 8170,
      "হবে": 8171,
      "inn": 8172,
      "retail": 8173,
      "reaction": 8174,
      "atropine": 8175,
      "stin": 8176,
      "alas": 8177,
      "cob": 8178,
      "acil": 8179,
      "perform": 8180,
      "lexin": 8181,
      "chhu": 8182,
      "deplition": 8183,
      "destruction": 8184,
      "combin": 8185,
      "gradu": 8186,
      "absc": 8187,
      "mohini": 8188,
      "himal": 8189,
      "pady": 8190,
      "agron": 8191,
      "measu": 8192,
      "racture": 8193,
      "iden": 8194,
      "ineligi": 8195,
      "tiveness": 8196,
      "irr": 8197,
      "feild": 8198,
      "therapy": 8199,
      "phase": 8200,
      "giri": 8201,
      "malathione": 8202,
      "vento": 8203,
      "kak": 8204,
      "farms": 8205,
      "distt": 8206,
      "distur": 8207,
      "avaram": 8208,
      "bending": 8209,
      "build": 8210,
      "marsh": 8211,
      "scra": 8212,
      "seasonal": 8213,
      "attact": 8214,
      "134": 8215,
      "chikni": 8216,
      "epsom": 8217,
      "multiv": 8218,
      "242": 8219,
      "14th": 8220,
      "acids": 8221,
      "9040": 8222,
      "syp": 8223,
      "citric": 8224,
      "partly": 8225,
      "triflumezopyrim": 8226,
      "276": 8227,
      "ommended": 8228,
      "pset": 8229,
      "clinic": 8230,
      "brane": 8231,
      "survey": 8232,
      "mandi": 8233,
      "385": 8234,
      "estrus": 8235,
      "broadleaf": 8236,
      "friend": 8237,
      "guntur": 8238,
      "468": 8239,
      "temperatures": 8240,
      "subsidies": 8241,
      "severly": 8242,
      "severity": 8243,
      "34ml": 8244,
      "swetha": 8245,
      "celci": 8246,
      "jyothi": 8247,
      "fmc": 8248,
      "possi": 8249,
      "broadcasted": 8250,
      "widely": 8251,
      "986": 8252,
      "balance": 8253,
      "sarbat": 8254,
      "कार्": 8255,
      "muskmelon": 8256,
      "kasu": 8257,
      "zink": 8258,
      "ized": 8259,
      "ledge": 8260,
      "circul": 8261,
      "enhancement": 8262,
      "******": 8263,
      "biofloc": 8264,
      "mnagement": 8265,
      "fortnightly": 8266,
      "avoided": 8267,
      "boiled": 8268,
      "manoj": 8269,
      "promoting": 8270,
      "farrowing": 8271,
      "mahako": 8272,
      "exposed": 8273,
      "icidine": 8274,
      "stimulant": 8275,
      "ectoparasites": 8276,
      "particular": 8277,
      "absorb": 8278,
      "2459": 8279,
      "movement": 8280,
      "consumer": 8281,
      "vanaraja": 8282,
      "kushal": 8283,
      "secret": 8284,
      "bharat": 8285,
      "inputs": 8286,
      "yasangi": 8287,
      "प्रधानमंत्री": 8288,
      "emmamectin": 8289,
      "splash": 8290,
      "courage": 8291,
      "maintenance": 8292,
      "nazira": 8293,
      "mochai": 8294,
      "nihut": 8295,
      "metiram": 8296,
      "beyond": 8297,
      "techniques": 8298,
      "chhuhara": 8299,
      "09435": 8300,
      "1400": 8301,
      "42kg": 8302,
      "694": 8303,
      "Most": 8304,
      "SS": 8305,
      "Th": 8306,
      "Vi": 8307,
      "],": 8308,
      "fallow": 8309,
      "glo": 8310,
      "kroiler": 8311,
      "las": 8312,
      "oded": 8313,
      "oot": 8314,
      "past": 8315,
      "sari": 8316,
      "sard": 8317,
      "কৰ": 8318,
      "পর": 8319,
      "লো": 8320,
      "info": 8321,
      "intake": 8322,
      "erect": 8323,
      "rew": 8324,
      "onda": 8325,
      "thro": 8326,
      "lium": 8327,
      "roz": 8328,
      "ordin": 8329,
      "arum": 8330,
      "seem": 8331,
      "sess": 8332,
      "watery": 8333,
      "askng": 8334,
      "icin": 8335,
      "ende": 8336,
      "adap": 8337,
      "suvid": 8338,
      "ita": 8339,
      "deb": 8340,
      "compon": 8341,
      "dio": 8342,
      "001": 8343,
      "otef": 8344,
      "managemant": 8345,
      "moil": 8346,
      "movento": 8347,
      "pex": 8348,
      "wither": 8349,
      "109": 8350,
      "amite": 8351,
      "2018": 8352,
      "askingb": 8353,
      "bom": 8354,
      "ides": 8355,
      "cease": 8356,
      "node": 8357,
      "nodal": 8358,
      "dhari": 8359,
      "phan": 8360,
      "neoc": 8361,
      "cts": 8362,
      "cted": 8363,
      "plains": 8364,
      "regaring": 8365,
      "bris": 8366,
      "redish": 8367,
      "verities": 8368,
      "shu": 8369,
      "122": 8370,
      "offset": 8371,
      "tuce": 8372,
      "ranjan": 8373,
      "yearly": 8374,
      "hepa": 8375,
      "greenish": 8376,
      "calsium": 8377,
      "building": 8378,
      "endofil": 8379,
      "pumping": 8380,
      "world": 8381,
      "availe": 8382,
      "sili": 8383,
      "deficien": 8384,
      "mulugu": 8385,
      "garcin": 8386,
      "anthapuram": 8387,
      "banks": 8388,
      "bedana": 8389,
      "6000": 8390,
      "laon": 8391,
      "subscri": 8392,
      "disinfection": 8393,
      "ga3": 8394,
      "mita": 8395,
      "234": 8396,
      "238": 8397,
      "aliphos": 8398,
      "barroz": 8399,
      "holstein": 8400,
      "recome": 8401,
      "plantations": 8402,
      "pyrop": 8403,
      "folding": 8404,
      "cinnamon": 8405,
      "vomit": 8406,
      "quinaliphos": 8407,
      "preventing": 8408,
      "dinotef": 8409,
      "700g": 8410,
      "benevia": 8411,
      "respect": 8412,
      "lateral": 8413,
      "machinary": 8414,
      "kasar": 8415,
      "madhu": 8416,
      "juice": 8417,
      "********": 8418,
      "endophil": 8419,
      "climbing": 8420,
      "দিব": 8421,
      "crickets": 8422,
      "mohafal": 8423,
      "olitori": 8424,
      "paint": 8425,
      "certification": 8426,
      "develope": 8427,
      "developing": 8428,
      "odour": 8429,
      "walls": 8430,
      "ectoparasite": 8431,
      "dichloride": 8432,
      "byrnihut": 8433,
      "plenofix": 8434,
      "9436227": 8435,
      "nanha": 8436,
      "degradable": 8437,
      "palnting": 8438,
      "cassia": 8439,
      "insured": 8440,
      "insert": 8441,
      "written": 8442,
      "isoprothiolane": 8443,
      "conciplex": 8444,
      "ceptible": 8445,
      "bxh": 8446,
      "yorkshire": 8447,
      "lxbxh": 8448,
      "himalayan": 8449,
      "multivit": 8450,
      "suvidha": 8451,
      "garcinia": 8452,
      "9436227984": 8453,
      ",(": 8454,
      "226": 8455,
      "530": 8456,
      "550g": 8457,
      "Well": 8458,
      "bn": 8459,
      "cycl": 8460,
      "dns": 8461,
      "fat": 8462,
      "find": 8463,
      "hdf": 8464,
      "ky": 8465,
      "nh": 8466,
      "piler": 8467,
      "qwa": 8468,
      "qury": 8469,
      "rti": 8470,
      "rri": 8471,
      "wit": 8472,
      "zum": 8473,
      "য়া": 8474,
      "angra": 8475,
      "recent": 8476,
      "onplus": 8477,
      "thali": 8478,
      "ras": 8479,
      "tore": 8480,
      "tomo": 8481,
      "sten": 8482,
      "arin": 8483,
      "as0": 8484,
      "ading": 8485,
      "chir": 8486,
      "china": 8487,
      "ations": 8488,
      "grazing": 8489,
      "bes": 8490,
      "bear": 8491,
      "ote": 8492,
      "peanut": 8493,
      "200mg": 8494,
      "intervel": 8495,
      "potao": 8496,
      "pole": 8497,
      "poses": 8498,
      "treament": 8499,
      "ashri": 8500,
      "regading": 8501,
      "ventil": 8502,
      "grower": 8503,
      "chloripyriphos": 8504,
      "121": 8505,
      "grey": 8506,
      "greater": 8507,
      "nara": 8508,
      "zobid": 8509,
      "micr": 8510,
      "occas": 8511,
      "scion": 8512,
      "356": 8513,
      "knowledge": 8514,
      "infec": 8515,
      "drone": 8516,
      "akandi": 8517,
      "177": 8518,
      "worker": 8519,
      "upf": 8520,
      "80gm": 8521,
      "1320": 8522,
      "oppo": 8523,
      "sampling": 8524,
      "samples": 8525,
      "deccan": 8526,
      "guide": 8527,
      "ellence": 8528,
      "purposes": 8529,
      "axil": 8530,
      "corms": 8531,
      "lawin": 8532,
      "pancur": 8533,
      "discoloration": 8534,
      "azh": 8535,
      "colen": 8536,
      "packag": 8537,
      "28425": 8538,
      "transffered": 8539,
      "officers": 8540,
      "quails": 8541,
      "clasic": 8542,
      "tetraniliprole": 8543,
      "pradip": 8544,
      "grassy": 8545,
      "rhizopus": 8546,
      "emergency": 8547,
      "350gm": 8548,
      "471": 8549,
      "??????,": 8550,
      "kodo": 8551,
      "washed": 8552,
      "sammanidhi": 8553,
      "states": 8554,
      "excellence": 8555,
      "paid": 8556,
      "agrominmax": 8557,
      "glycel": 8558,
      "opened": 8559,
      "halosulfuron": 8560,
      "silchar": 8561,
      "patnam": 8562,
      "140g": 8563,
      "viridae": 8564,
      "simba": 8565,
      "formulations": 8566,
      "grafts": 8567,
      "vanilla": 8568,
      "circle": 8569,
      "appears": 8570,
      "pollu": 8571,
      "defficiency": 8572,
      "cucurbit": 8573,
      "agency": 8574,
      "aquac": 8575,
      "tonophosp": 8576,
      "substance": 8577,
      "gelapukhuri": 8578,
      "ciprocolen": 8579,
      "satur": 8580,
      "cemented": 8581,
      "disinfectant": 8582,
      "investigation": 8583,
      "identify": 8584,
      "NAROCA": 8585,
      "0376": 8586,
      "cpcri": 8587,
      "minutees": 8588,
      "successfully": 8589,
      "08354": 8590,
      "vetenery": 8591,
      "slice": 8592,
      "involved": 8593,
      "neemoil": 8594,
      "coccidi": 8595,
      "अधिक": 8596,
      "industries": 8597,
      "chlrop": 8598,
      "reported": 8599,
      "lepidopter": 8600,
      "piperazine": 8601,
      "finisher": 8602,
      "kathas": 8603,
      "indofill": 8604,
      "781017": 8605,
      "ethephon": 8606,
      "repayment": 8607,
      "914931": 8608,
      "nimbicidine": 8609,
      "pottasium": 8610,
      "coromandel": 8611,
      "bumper": 8612,
      "implements": 8613,
      "processes": 8614,
      "amorphophallus": 8615,
      "american": 8616,
      "pseuodomonas": 8617,
      "nizamabad": 8618,
      "identification": 8619,
      "hdfc": 8620,
      "qwality": 8621,
      "angrau": 8622,
      "occasion": 8623,
      "2842513": 8624,
      "NAROCASS": 8625,
      "\u0006\u0012": 8626,
      "%),": 8627,
      "1bl": 8628,
      "4ec": 8629,
      "7ml": 8630,
      "://": 8631,
      "Crop": 8632,
      "Fungal": 8633,
      "Im": 8634,
      "SE": 8635,
      "Yellow": 8636,
      "aman": 8637,
      "bask": 8638,
      "cies": 8639,
      "claim": 8640,
      "fund": 8641,
      "gam": 8642,
      "haf": 8643,
      "hain": 8644,
      "ition": 8645,
      "kel": 8646,
      "koo": 8647,
      "kaveri": 8648,
      "kembel": 8649,
      "ome": 8650,
      "slo": 8651,
      "tec": 8652,
      "tine": 8653,
      "zc": 8654,
      "सी": 8655,
      "রি": 8656,
      "লে": 8657,
      "rea": 8658,
      "aty": 8659,
      "atter": 8660,
      "liser": 8661,
      "lished": 8662,
      "rar": 8663,
      "tool": 8664,
      "mesh": 8665,
      "sprint": 8666,
      "semen": 8667,
      "alak": 8668,
      "ilty": 8669,
      "icp": 8670,
      "encourage": 8671,
      "condu": 8672,
      "acent": 8673,
      "acute": 8674,
      "islam": 8675,
      "utral": 8676,
      "chill": 8677,
      "chinta": 8678,
      "deta": 8679,
      "designed": 8680,
      "commen": 8681,
      "mann": 8682,
      "rimal": 8683,
      "dized": 8684,
      "diathane": 8685,
      "bees": 8686,
      "becoming": 8687,
      "afido": 8688,
      "abul": 8689,
      "uncultivated": 8690,
      "promin": 8691,
      "hos": 8692,
      "10m": 8693,
      "appliances": 8694,
      "pots": 8695,
      "iduk": 8696,
      "montex": 8697,
      "athrin": 8698,
      "outside": 8699,
      "whor": 8700,
      "sah": 8701,
      "pher": 8702,
      "assist": 8703,
      "shah": 8704,
      "avaial": 8705,
      "ycel": 8706,
      "cotrol": 8707,
      "yearling": 8708,
      "phosalone": 8709,
      "rounds": 8710,
      "askig": 8711,
      "uster": 8712,
      "hydr": 8713,
      "maric": 8714,
      "vikas": 8715,
      "musturd": 8716,
      "1300": 8717,
      "lettuce": 8718,
      "composted": 8719,
      "mating": 8720,
      "buttan": 8721,
      "efficient": 8722,
      "efficiency": 8723,
      "167": 8724,
      "corner": 8725,
      "boom": 8726,
      "panicles": 8727,
      "multiple": 8728,
      "khat": 8729,
      "subject": 8730,
      "collis": 8731,
      "suppor": 8732,
      "swim": 8733,
      "bais": 8734,
      "bahar": 8735,
      "matures": 8736,
      "overall": 8737,
      "overcast": 8738,
      "thereby": 8739,
      "sanji": 8740,
      "propyl": 8741,
      "credited": 8742,
      "installments": 8743,
      "nuro": 8744,
      "initiate": 8745,
      "ilee": 8746,
      "enrodac": 8747,
      "551": 8748,
      "pregnent": 8749,
      "moisten": 8750,
      "ivygourd": 8751,
      "94350385": 8752,
      "expalin": 8753,
      "neospor": 8754,
      "manik": 8755,
      "respected": 8756,
      "panacure": 8757,
      "काव": 8758,
      "vananthapuram": 8759,
      "roshonplus": 8760,
      "madhira": 8761,
      "nasdur": 8762,
      "buttons": 8763,
      "frtilizer": 8764,
      "NASE": 8765,
      "crul": 8766,
      "hiranya": 8767,
      "kollam": 8768,
      "regardin": 8769,
      "Beans": 8770,
      "immune": 8771,
      "updation": 8772,
      "echino": 8773,
      "implemented": 8774,
      "aicrp": 8775,
      "hailakandi": 8776,
      "settling": 8777,
      "maputra": 8778,
      "cholera": 8779,
      "brahmaputra": 8780,
      "residues": 8781,
      "thiruvananthapuram": 8782,
      "amidon": 8783,
      "अपने": 8784,
      "कृष": 8785,
      "rahman": 8786,
      "hydroponics": 8787,
      "community": 8788,
      "choudh": 8789,
      "celcius": 8790,
      "hepawin": 8791,
      "recomemnded": 8792,
      "rrii": 8793,
      "chintamani": 8794,
      "idukki": 8795,
      "sanjib": 8796,
      "9435038547": 8797,
      "\u0011\b": 8798,
      "\u0017\u0004": 8799,
      ",+": 8800,
      "319": 8801,
      "340": 8802,
      "970": 8803,
      "About": 8804,
      "Att": 8805,
      "Add": 8806,
      "CM": 8807,
      "Good": 8808,
      "cate": 8809,
      "eater": 8810,
      "eel": 8811,
      "eve": 8812,
      "eki": 8813,
      "faba": 8814,
      "gast": 8815,
      "mut": 8816,
      "ov": 8817,
      "oin": 8818,
      "ozole": 8819,
      "puri": 8820,
      "rong": 8821,
      "tear": 8822,
      "uv": 8823,
      "vaz": 8824,
      "wara": 8825,
      "x30": 8826,
      "yad": 8827,
      "zenta": 8828,
      "ंब": 8829,
      "एम": 8830,
      "और": 8831,
      "छि": 8832,
      "ন্": 8833,
      "হে": 8834,
      "োগ": 8835,
      "anus": 8836,
      "anga": 8837,
      "athogen": 8838,
      "thr": 8839,
      "thur": 8840,
      "thak": 8841,
      "ori": 8842,
      "sty": 8843,
      "stone": 8844,
      "strain": 8845,
      "alanto": 8846,
      "geal": 8847,
      "gena": 8848,
      "copi": 8849,
      "asw": 8850,
      "icate": 8851,
      "conver": 8852,
      "ache": 8853,
      "adh": 8854,
      "adj": 8855,
      "admi": 8856,
      "peram": 8857,
      "isa": 8858,
      "suj": 8859,
      "chro": 8860,
      "chal": 8861,
      "deactivation": 8862,
      "contract": 8863,
      "mana": 8864,
      "davan": 8865,
      "belam": 8866,
      "ulation": 8867,
      "doux": 8868,
      "abdo": 8869,
      "abio": 8870,
      "proso": 8871,
      "sore": 8872,
      "bih": 8873,
      "peel": 8874,
      "exfoli": 8875,
      "expul": 8876,
      "export": 8877,
      "emaci": 8878,
      "agre": 8879,
      "measuring": 8880,
      "lom": 8881,
      "look": 8882,
      "losses": 8883,
      "berries": 8884,
      "tratment": 8885,
      "200l": 8886,
      "atom": 8887,
      "leafcurl": 8888,
      "males": 8889,
      "bang": 8890,
      "banan": 8891,
      "rallis": 8892,
      "rots": 8893,
      "cultivars": 8894,
      "acts": 8895,
      "illate": 8896,
      "forming": 8897,
      "tejas": 8898,
      "blic": 8899,
      "ongal": 8900,
      "benomyl": 8901,
      "mild": 8902,
      "derived": 8903,
      "hebb": 8904,
      "606": 8905,
      "aski": 8906,
      "storm": 8907,
      "inflawin": 8908,
      "752": 8909,
      "iender": 8910,
      "aked": 8911,
      "plank": 8912,
      "harvester": 8913,
      "atitis": 8914,
      "80235": 8915,
      "phosphamidon": 8916,
      "brocoli": 8917,
      "access": 8918,
      "license": 8919,
      "2220": 8920,
      "rambuttan": 8921,
      "coriender": 8922,
      "biopower": 8923,
      "panjab": 8924,
      "maxima": 8925,
      "furrow": 8926,
      "rajmah": 8927,
      "duckery": 8928,
      "239": 8929,
      "23kg": 8930,
      "ensis": 8931,
      "suppress": 8932,
      "damycin": 8933,
      "overdose": 8934,
      "barman": 8935,
      "bardoux": 8936,
      "thanks": 8937,
      "487": 8938,
      "786": 8939,
      "karathane": 8940,
      "cleaner": 8941,
      "nip": 8942,
      "085": 8943,
      "paraqu": 8944,
      "budded": 8945,
      "budrot": 8946,
      "commonly": 8947,
      "tarpaul": 8948,
      "bury": 8949,
      "burrow": 8950,
      "rates": 8951,
      "cloud": 8952,
      "800ml": 8953,
      "levels": 8954,
      "gunta": 8955,
      "flag": 8956,
      "666": 8957,
      "pai": 8958,
      "paral": 8959,
      "sindur": 8960,
      "maturing": 8961,
      "joha": 8962,
      "promoters": 8963,
      "metaldehyde": 8964,
      "regulators": 8965,
      "91474": 8966,
      "ganda": 8967,
      "surya": 8968,
      "tolerate": 8969,
      "aese": 8970,
      "rimation": 8971,
      "mossaic": 8972,
      "established": 8973,
      "inseminate": 8974,
      "southwest": 8975,
      "thiophan": 8976,
      "intercropped": 8977,
      "broflanilidae": 8978,
      "retaintion": 8979,
      "chiselled": 8980,
      "promotes": 8981,
      "varrieties": 8982,
      "tocklai": 8983,
      "delayed": 8984,
      "shelter": 8985,
      "hepatitis": 8986,
      "lacrimation": 8987,
      "wateer": 8988,
      "anchal": 8989,
      "byrnihat": 8990,
      "vaginal": 8991,
      "susceptible": 8992,
      "bhuyan": 8993,
      "telephone": 8994,
      "business": 8995,
      "flushes": 8996,
      "mechani": 8997,
      "CBSV": 8998,
      "04994": 8999,
      "sriniv": 9000,
      "example": 9001,
      "कॉल": 9002,
      "psylla": 9003,
      "corriander": 9004,
      "yesterday": 9005,
      "anthelmintic": 9006,
      "pistillate": 9007,
      "additive": 9008,
      "rijusmita": 9009,
      "mahico": 9010,
      "nimbecidine": 9011,
      "ineligible": 9012,
      "marshal": 9013,
      "sardine": 9014,
      "pyropen": 9015,
      "*********": 9016,
      "packaging": 9017,
      "aquaculture": 9018,
      "Yellowing": 9019,
      "afidopyropen": 9020,
      "neosporin": 9021,
      "crulser": 9022,
      "echinochloa": 9023,
      "Attack": 9024,
      "abiotic": 9025,
      "thiophanate": 9026,
      "\u0004\u000f": 9027,
      ")&": 9028,
      "2oo": 9029,
      "3times": 9030,
      "360g": 9031,
      "572": 9032,
      "aac": 9033,
      "aka": 9034,
      "aply": 9035,
      "bru": 9036,
      "cnose": 9037,
      "dani": 9038,
      "dvo": 9039,
      "flon": 9040,
      "fci": 9041,
      "hd": 9042,
      "htt": 9043,
      "juri": 9044,
      "jol": 9045,
      "kf": 9046,
      "kow": 9047,
      "kop": 9048,
      "lum": 9049,
      "oury": 9050,
      "pak": 9051,
      "pvt": 9052,
      "trose": 9053,
      "uga": 9054,
      "x1m": 9055,
      "ता": 9056,
      "सा": 9057,
      "িব": 9058,
      "erse": 9059,
      "anu": 9060,
      "anching": 9061,
      "rect": 9062,
      "thimate": 9063,
      "lice": 9064,
      "sper": 9065,
      "span": 9066,
      "spice": 9067,
      "tio": 9068,
      "ticollis": 9069,
      "coar": 9070,
      "copra": 9071,
      "asst": 9072,
      "apri": 9073,
      "ica": 9074,
      "acet": 9075,
      "issues": 9076,
      "legu": 9077,
      "suc": 9078,
      "defi": 9079,
      "rio": 9080,
      "abhay": 9081,
      "dying": 9082,
      "moss": 9083,
      "tag": 9084,
      "exaper": 9085,
      "exotic": 9086,
      "106": 9087,
      "1050": 9088,
      "emnt": 9089,
      "??-": 9090,
      "aga": 9091,
      "amc": 9092,
      "among": 9093,
      "2023": 9094,
      "cropped": 9095,
      "monkey": 9096,
      "malappu": 9097,
      "diseas": 9098,
      "injoury": 9099,
      "coconuts": 9100,
      "cows": 9101,
      "ralin": 9102,
      "19all": 9103,
      "shil": 9104,
      "shiv": 9105,
      "tones": 9106,
      "cau": 9107,
      "teh": 9108,
      "40yrs": 9109,
      "bengena": 9110,
      "dermo": 9111,
      "greenhouse": 9112,
      "cup": 9113,
      "mixtures": 9114,
      "landline": 9115,
      "18th": 9116,
      "spaces": 9117,
      "stores": 9118,
      "protected": 9119,
      "4000": 9120,
      "turned": 9121,
      "drill": 9122,
      "feedback": 9123,
      "merger": 9124,
      "scho": 9125,
      "akind": 9126,
      "1700": 9127,
      "300kg": 9128,
      "ichur": 9129,
      "pipe": 9130,
      "264": 9131,
      "269": 9132,
      "26kg": 9133,
      "broken": 9134,
      "multine": 9135,
      "deww": 9136,
      "flock": 9137,
      "salient": 9138,
      "citrous": 9139,
      "biodegradable": 9140,
      "600gm": 9141,
      "thiacloprid": 9142,
      "4468": 9143,
      "waether": 9144,
      "trim": 9145,
      "284468": 9146,
      "keteki": 9147,
      "veterinery": 9148,
      "7813": 9149,
      "dextrose": 9150,
      "diarrhoe": 9151,
      "carbon": 9152,
      "carbonate": 9153,
      "processed": 9154,
      "iving": 9155,
      "ested": 9156,
      "backed": 9157,
      "medicines": 9158,
      "closed": 9159,
      "aboout": 9160,
      "kozha": 9161,
      "bassina": 9162,
      "killing": 9163,
      "jagtial": 9164,
      "nova": 9165,
      "novacron": 9166,
      "stoped": 9167,
      "masur": 9168,
      "0495": 9169,
      "9435080235": 9170,
      "checked": 9171,
      "verticilium": 9172,
      "91479": 9173,
      "pattern": 9174,
      "kranthi": 9175,
      "fooder": 9176,
      "cocnut": 9177,
      "sivic": 9178,
      "kidney": 9179,
      "sprinkling": 9180,
      "beneficiaries": 9181,
      "nasder": 9182,
      "pressure": 9183,
      "monohar": 9184,
      "phosphomidon": 9185,
      "frequency": 9186,
      "ensures": 9187,
      "cloths": 9188,
      "scales": 9189,
      "retainsion": 9190,
      "karimunda": 9191,
      "fixed": 9192,
      "residual": 9193,
      "rottening": 9194,
      "abouit": 9195,
      "dfdo": 9196,
      "incubator": 9197,
      "bordoux": 9198,
      "oraganic": 9199,
      "intensive": 9200,
      "pelvic": 9201,
      "faster": 9202,
      "continuous": 9203,
      "areddy": 9204,
      "validamycin": 9205,
      "manufact": 9206,
      "carbandazim": 9207,
      "loropid": 9208,
      "neemazal": 9209,
      "parvati": 9210,
      "deeper": 9211,
      "eradication": 9212,
      "extraction": 9213,
      "subvention": 9214,
      "instruction": 9215,
      "segreg": 9216,
      "existing": 9217,
      "disconnected": 9218,
      "females": 9219,
      "oyster": 9220,
      "true": 9221,
      "94350925": 9222,
      "analysis": 9223,
      "aciloc": 9224,
      "gradually": 9225,
      "Through": 9226,
      "availebles": 9227,
      "opposite": 9228,
      "coccidiosis": 9229,
      "chlropyriphos": 9230,
      "कृषि": 9231,
      "adjacent": 9232,
      "belamyl": 9233,
      "exfoliation": 9234,
      "sinduri": 9235,
      "aacp": 9236,
      "malappuram": 9237,
      "multineem": 9238,
      "28446815": 9239,
      "65g": 9240,
      ":+": 9241,
      "Fall": 9242,
      "Pest": 9243,
      "]--": 9244,
      "aw": 9245,
      "aro": 9246,
      "ahi": 9247,
      "airy": 9248,
      "ails": 9249,
      "fra": 9250,
      "fot": 9251,
      "fron": 9252,
      "fif": 9253,
      "gic": 9254,
      "gid": 9255,
      "gyl": 9256,
      "lau": 9257,
      "nb": 9258,
      "pp": 9259,
      "pall": 9260,
      "ptomycin": 9261,
      "pile": 9262,
      "sick": 9263,
      "vas": 9264,
      "vice": 9265,
      "vani": 9266,
      "vyt": 9267,
      "जा": 9268,
      "भाई": 9269,
      "सक": 9270,
      "ोल": 9271,
      "ঘা": 9272,
      "ank": 9273,
      "real": 9274,
      "often": 9275,
      "onutrient": 9276,
      "lif": 9277,
      "toli": 9278,
      "rocin": 9279,
      "sti": 9280,
      "spra": 9281,
      "arup": 9282,
      "arrange": 9283,
      "tied": 9284,
      "tirup": 9285,
      "plat": 9286,
      "plenty": 9287,
      "coe": 9288,
      "cock": 9289,
      "couli": 9290,
      "aprop": 9291,
      "approved": 9292,
      "andar": 9293,
      "andrew": 9294,
      "accom": 9295,
      "issu": 9296,
      "itself": 9297,
      "dease": 9298,
      "desk": 9299,
      "commit": 9300,
      "beli": 9301,
      "besh": 9302,
      "gohain": 9303,
      "dostem": 9304,
      "proportion": 9305,
      "bial": 9306,
      "lize": 9307,
      "lizing": 9308,
      "agl": 9309,
      "agr": 9310,
      "agere": 9311,
      "ammam": 9312,
      "avg": 9313,
      "lose": 9314,
      "trycel": 9315,
      "pome": 9316,
      "poutry": 9317,
      "inea": 9318,
      "mopsis": 9319,
      "fomycin": 9320,
      "neg": 9321,
      "25th": 9322,
      "dual": 9323,
      "forms": 9324,
      "lucer": 9325,
      "406": 9326,
      "weedblock": 9327,
      "gress": 9328,
      "ders": 9329,
      "hili": 9330,
      "parthen": 9331,
      "hair": 9332,
      "60ml": 9333,
      "6010": 9334,
      "yoz": 9335,
      "occation": 9336,
      "indigenous": 9337,
      "hyadri": 9338,
      "scent": 9339,
      "bettel": 9340,
      "pally": 9341,
      "turmite": 9342,
      "meriv": 9343,
      "ako": 9344,
      "repel": 9345,
      "cabbages": 9346,
      "word": 9347,
      "mainta": 9348,
      "cutter": 9349,
      "139": 9350,
      "centres": 9351,
      "250gram": 9352,
      "tila": 9353,
      "kapilee": 9354,
      "deficency": 9355,
      "deficient": 9356,
      "267": 9357,
      "arab": 9358,
      "gumosis": 9359,
      "ella": 9360,
      "334": 9361,
      "experi": 9362,
      "223": 9363,
      "90kg": 9364,
      "fire": 9365,
      "vaccin": 9366,
      "saliva": 9367,
      "maxx": 9368,
      "khammam": 9369,
      "discolouration": 9370,
      "gaurd": 9371,
      "273": 9372,
      "tape": 9373,
      "gera": 9374,
      "magnes": 9375,
      "swap": 9376,
      "120gm": 9377,
      "709040": 9378,
      "allied": 9379,
      "parent": 9380,
      "mming": 9381,
      "785": 9382,
      "7833": 9383,
      "786010": 9384,
      "ggery": 9385,
      "procedures": 9386,
      "sanction": 9387,
      "muscle": 9388,
      "anikkara": 9389,
      "fosfomycin": 9390,
      "univer": 9391,
      "germinated": 9392,
      "eyes": 9393,
      "384": 9394,
      "kalinga": 9395,
      "burrows": 9396,
      "clock": 9397,
      "larger": 9398,
      "gunjan": 9399,
      "windsor": 9400,
      "regions": 9401,
      "mastamite": 9402,
      "66112": 9403,
      "voice": 9404,
      "observation": 9405,
      "paan": 9406,
      "851": 9407,
      "imidachlorpid": 9408,
      "approaching": 9409,
      "allows": 9410,
      "damages": 9411,
      "flooding": 9412,
      "patho": 9413,
      "pattam": 9414,
[...]
